<pad>	0
<unk>	0
[CLS]	0
[SEP]	0
[MASK]	0
(	0
)	0
"	0
-	0
.	0
–	0
£	0
€	0
▁	-1.91955
_	-2.07417
▁,	-3.63492
▁=	-3.6676
▁là	-4.53426
▁một	-4.749
▁và	-4.78551
▁của	-4.81705
▁được	-4.91827
▁trong	-4.96439
▁năm	-5.11492
▁có	-5.1623
▁OF	-5.33008
▁END	-5.33064
▁PAGE	-5.33065
▁các	-5.42346
▁này	-5.46685
▁họ	-5.54471
▁loài	-5.60363
▁người	-5.73147
học	-5.76876
▁đã	-5.84146
▁ở	-5.84546
▁:	-5.8716
▁cho	-5.89051
▁với	-5.90834
▁đầu	-6.07895
số	-6.11984
▁vào	-6.12592
tả	-6.13357
▁Loài	-6.16648
▁khoa	-6.1998
▁tháng	-6.22374
tiên	-6.24095
▁không	-6.28394
vật	-6.29819
▁từ	-6.31054
▁những	-6.33103
▁đến	-6.35158
▁thực	-6.40363
s	-6.41301
▁thuộc	-6.43564
▁khi	-6.45214
thể	-6.49592
▁tại	-6.49791
▁ngày	-6.51365
▁về	-6.523
▁đó	-6.5247
▁thành	-6.53387
▁để	-6.54862
▁trên	-6.56189
▁ra	-6.59158
▁ông	-6.66467
▁như	-6.66553
▁1	-6.67629
▁mô	-6.70837
▁sau	-6.73481
▁làm	-6.75084
▁hoa	-6.75126
▁chính	-6.76313
▁bị	-6.77048
▁nhà	-6.77968
▁cũng	-6.80928
gia	-6.83268
▁sự	-6.84176
▁dân	-6.86703
Nam	-6.91484
▁nhiều	-6.92629
▁miêu	-6.93722
động	-6.94599
▁thời	-6.9583
▁lại	-6.96323
▁2	-6.96637
▁nước	-6.96967
▁xã	-6.97571
▁tỉnh	-6.99121
▁công	-6.99583
▁phát	-7.0076
▁con	-7.01256
a	-7.02914
▁hai	-7.04164
i	-7.04339
▁khác	-7.06914
▁nhất	-7.08378
▁theo	-7.09208
▁quân	-7.09508
hiện	-7.10092
▁3	-7.10259
▁Việt	-7.12444
viên	-7.13344
▁chỉ	-7.15067
e	-7.15446
▁Các	-7.16252
▁hơn	-7.17036
▁thứ	-7.1732
dụng	-7.18469
▁còn	-7.18906
định	-7.19208
▁Liên	-7.19371
thành	-7.21708
▁/	-7.22222
kết	-7.23042
▁Trung	-7.24034
▁huyện	-7.2599
▁A	-7.26295
giới	-7.27879
▁of	-7.28303
▁;	-7.28453
▁vùng	-7.29155
▁tên	-7.29281
Kỳ	-7.3018
▁nó	-7.30377
n	-7.30642
▁Năm	-7.30995
▁nhưng	-7.31488
▁bởi	-7.31795
▁phía	-7.32294
▁cuộc	-7.33712
2	-7.34061
đầu	-7.34822
công	-7.35158
▁4	-7.35204
hội	-7.35938
hành	-7.36235
▁phải	-7.36393
lượng	-7.36443
thị	-7.36964
▁việc	-7.3707
▁ngoài	-7.37761
▁trở	-7.38381
điểm	-7.39192
trình	-7.39717
▁Trong	-7.39961
▁do	-7.40988
▁quốc	-7.41298
▁cánh	-7.41625
quân	-7.41779
lý	-7.42221
tích	-7.42301
đoàn	-7.42464
▁khu	-7.43101
tế	-7.43611
độ	-7.43674
▁Hoa	-7.43732
▁điều	-7.43747
▁rằng	-7.43765
thống	-7.43794
▁mà	-7.4389
▁trước	-7.44133
▁5	-7.44774
phố	-7.45147
▁cao	-7.45237
▁thế	-7.45273
▁giải	-7.46262
Quốc	-7.46292
ta	-7.46416
▁bộ	-7.48094
▁lên	-7.48555
▁cùng	-7.4866
lập	-7.48752
▁Anh	-7.48979
▁sẽ	-7.49232
▁chiến	-7.50671
o	-7.51358
t	-7.52371
▁đêm	-7.53043
▁sử	-7.53335
▁chi	-7.53718
▁đi	-7.5397
▁10	-7.53997
▁bằng	-7.5406
▁hoặc	-7.55539
vụ	-7.55956
▁lớn	-7.56032
▁Đại	-7.56608
nhiên	-7.57252
y	-7.57666
▁km	-7.58165
▁bướm	-7.59497
hóa	-7.59965
▁thêm	-7.60143
▁Pháp	-7.60196
sĩ	-7.60398
▁đánh	-7.60411
▁'	-7.60552
trị	-7.60931
▁6	-7.61107
▁tự	-7.61887
bản	-7.6245
nghiệp	-7.62574
cứng	-7.63374
thức	-7.63885
▁8	-7.64508
▁&	-7.64691
hợp	-7.64875
chức	-7.65091
▁7	-7.65138
▁bắt	-7.65191
nhân	-7.65219
hình	-7.65365
▁the	-7.65649
▁phần	-7.65991
▁mình	-7.6602
▁thì	-7.66316
▁trung	-7.66332
▁quan	-7.66437
▁phân	-7.66461
▁hay	-7.66871
▁lần	-7.67304
vực	-7.68311
▁gọi	-7.68971
▁The	-7.69126
▁phim	-7.69403
▁Sau	-7.69474
▁bọ	-7.69956
▁%	-7.70531
khảo	-7.70543
▁bao	-7.71969
▁12	-7.72463
▁rất	-7.72577
bay	-7.72577
▁tới	-7.728
bộ	-7.7308
▁mới	-7.73261
▁qua	-7.73368
▁tàu	-7.74313
sử	-7.74521
bố	-7.75035
đấu	-7.75431
▁thường	-7.75929
▁S	-7.76201
pháp	-7.7658
▁anh	-7.76801
▁đường	-7.77752
▁đồng	-7.77784
▁Tham	-7.7861
năng	-7.78802
▁cơ	-7.78879
▁tham	-7.79652
▁khoảng	-7.79693
▁xuất	-7.79882
đội	-7.80033
▁chủ	-7.80206
▁Tây	-7.80731
▁9	-7.80835
▁Đức	-7.81961
▁chúng	-7.82123
▁sinh	-7.82276
gian	-7.8242
ra	-7.82457
xuất	-7.82772
▁đô	-7.83215
▁tiểu	-7.83314
▁liên	-7.83727
▁vì	-7.84022
▁C	-7.84261
trường	-7.84681
▁cô	-7.84858
▁sống	-7.85134
▁Mỹ	-7.85561
▁Dân	-7.85955
triển	-7.8616
▁đối	-7.86167
▁biển	-7.86273
m	-7.8638
▁Ông	-7.86444
quan	-7.87021
▁Xã	-7.87286
▁vị	-7.87377
lực	-7.87455
▁tiếp	-7.87545
dân	-7.87569
▁đặc	-7.87592
▁bóng	-7.87595
tử	-7.88277
▁loại	-7.88398
tranh	-7.88513
▁giữa	-7.88556
▁Một	-7.88801
▁thấy	-7.89147
gồm	-7.89536
▁nhau	-7.89789
trí	-7.90262
nghĩa	-7.91907
▁đang	-7.92645
thuật	-7.92844
▁11	-7.92975
▁cách	-7.92977
▁đây	-7.93027
thủ	-7.93152
▁nhân	-7.93244
▁đại	-7.93323
▁vai	-7.93381
▁tổ	-7.93523
tâm	-7.93922
▁thông	-7.94049
▁máy	-7.94346
▁Bắc	-7.94589
▁nằm	-7.95678
nhận	-7.96406
biệt	-7.96457
phủ	-7.96859
▁hành	-7.97523
sách	-7.98182
▁nơi	-7.98391
▁hoạt	-7.9887
▁Nó	-7.99068
▁Công	-7.99077
▁B	-7.9995
▁de	-8.00772
▁châu	-8.00847
▁2010	-8.00894
do	-8.00989
▁cả	-8.01084
us	-8.0115
▁and	-8.01181
giáo	-8.01264
vị	-8.01346
kỳ	-8.01489
sinh	-8.01536
▁ba	-8.01592
▁kinh	-8.01794
▁địa	-8.01953
đồng	-8.02339
quốc	-8.02559
▁dưới	-8.02621
đá	-8.02696
▁cuối	-8.02892
▁Nguyễn	-8.0302
c	-8.03378
▁nên	-8.03649
▁diễn	-8.04033
cứu	-8.04423
trọng	-8.04638
▁tập	-8.04666
▁đều	-8.04722
▁M	-8.04852
▁trận	-8.05162
phẩm	-8.05643
▁Nhật	-8.05773
▁đơn	-8.0596
▁quận	-8.06059
▁vẫn	-8.06088
cách	-8.06698
sự	-8.06878
▁nhỏ	-8.07913
tra	-8.08265
▁I	-8.0848
▁Xem	-8.08484
▁biết	-8.0862
▁nói	-8.08692
▁hàng	-8.08868
▁nam	-8.08991
▁Ngày	-8.09134
▁miền	-8.09644
▁thay	-8.09848
▁tìm	-8.09882
▁dùng	-8.10009
▁tổng	-8.1015
▁bài	-8.10359
chiến	-8.10385
g	-8.10481
▁hình	-8.10505
▁P	-8.11001
▁gần	-8.11186
▁sản	-8.11322
bang	-8.12138
▁Đông	-8.1216
ia	-8.12259
▁cá	-8.13011
▁T	-8.13137
▁nổi	-8.1396
▁kết	-8.14207
Độ	-8.14253
▁diện	-8.14746
▁sáng	-8.14934
sản	-8.15354
▁La	-8.15379
tác	-8.15537
▁truyền	-8.15791
▁in	-8.15804
đại	-8.15903
liệu	-8.15915
▁Bộ	-8.16027
tính	-8.16226
sát	-8.16279
đình	-8.16583
thế	-8.1675
▁Thái	-8.16887
▁nhóm	-8.16948
▁bên	-8.17042
đổi	-8.17224
▁hệ	-8.17475
▁chiếc	-8.17591
▁đông	-8.17602
▁sông	-8.17645
▁Hoàng	-8.17822
▁bắc	-8.18161
k	-8.18235
▁thi	-8.18388
đạo	-8.18952
trưởng	-8.19473
bị	-8.19813
ty	-8.2001
▁Tuy	-8.20078
er	-8.20164
▁đặt	-8.20286
cấp	-8.20289
▁bảo	-8.20327
chính	-8.20674
▁đội	-8.21226
hiệu	-8.21441
▁tương	-8.21576
tin	-8.21879
▁tiến	-8.21887
▁đưa	-8.219
Bản	-8.22286
nhất	-8.22299
cả	-8.22402
▁tấn	-8.2274
▁Hà	-8.22994
Lan	-8.23481
▁bản	-8.23571
▁Nam	-8.24275
▁Ấn	-8.24293
▁tạo	-8.24514
▁tiếng	-8.24646
quyền	-8.25053
▁Tổng	-8.25105
▁thiết	-8.25664
▁từng	-8.25689
▁mang	-8.25695
tục	-8.25814
vệ	-8.26254
tạo	-8.2646
dựng	-8.26468
▁văn	-8.266
▁chuyển	-8.26748
Dương	-8.26958
▁thị	-8.27212
án	-8.27215
▁Theo	-8.2733
▁tuổi	-8.27427
▁E	-8.27719
▁nhạc	-8.27734
bình	-8.2781
▁nhận	-8.28201
▁Quốc	-8.28208
u	-8.28366
l	-8.28547
cùng	-8.28587
binh	-8.28644
▁20	-8.289
d	-8.28995
▁chưa	-8.28998
▁Danh	-8.29083
▁thu	-8.2934
▁J	-8.29544
▁phong	-8.29926
Sơn	-8.30226
▁G	-8.30288
viện	-8.30899
nước	-8.30917
hòa	-8.30934
▁Nhà	-8.30997
cầu	-8.31278
▁L	-8.313
▁F	-8.31505
▁xây	-8.31638
▁Quân	-8.31956
▁Chúng	-8.32404
▁quá	-8.32453
▁Những	-8.32683
▁toàn	-8.3278
▁trường	-8.33027
▁quyền	-8.33066
▁H	-8.33095
nhiệm	-8.33191
▁2007	-8.33218
▁bất	-8.33281
▁hát	-8.33374
▁vô	-8.33561
diễn	-8.33753
▁bà	-8.33851
▁R	-8.33861
trấn	-8.34554
▁Ba	-8.34629
quả	-8.34968
▁đất	-8.35009
▁ca	-8.35172
▁hiện	-8.35192
nay	-8.35232
an	-8.35365
▁viết	-8.35446
000	-8.35475
▁màu	-8.36014
tiếng	-8.36047
đề	-8.36127
▁mùa	-8.36776
diện	-8.36779
▁dài	-8.36813
▁Vào	-8.37387
p	-8.37503
▁2006	-8.37565
việc	-8.37623
▁chống	-8.37751
dù	-8.37927
▁làng	-8.38048
▁Từ	-8.38084
tinh	-8.38373
▁Cộng	-8.38815
tộc	-8.39332
▁tính	-8.39501
▁nhiệt	-8.39514
▁chết	-8.39618
▁hoàn	-8.39769
in	-8.39785
▁ban	-8.39989
lệ	-8.3999
vi	-8.40081
▁D	-8.40151
▁lúc	-8.40508
▁chiếm	-8.40563
▁mất	-8.40667
dịch	-8.40726
▁tình	-8.40984
▁Giải	-8.41033
▁giống	-8.41326
▁Thành	-8.41347
▁ăn	-8.41463
▁tác	-8.41479
▁phụ	-8.4178
na	-8.41895
▁mở	-8.4204
chế	-8.42289
hậu	-8.4255
▁tăng	-8.42559
▁đóng	-8.42561
▁15	-8.4275
▁điện	-8.42752
kỷ	-8.43072
▁mặt	-8.43396
al	-8.43419
▁Khi	-8.43604
với	-8.43862
sở	-8.44495
minh	-8.44526
▁gồm	-8.44685
▁câu	-8.44952
▁2011	-8.45149
trợ	-8.4534
tại	-8.45398
▁K	-8.45584
▁âm	-8.45626
▁tài	-8.45716
▁bán	-8.45793
▁chân	-8.45811
▁di	-8.45884
biến	-8.4601
▁xe	-8.46236
▁trang	-8.46361
nhập	-8.46686
en	-8.46907
▁nữ	-8.47033
▁vua	-8.4706
Bình	-8.47408
▁nguyên	-8.47461
hệ	-8.47562
▁cầu	-8.47675
h	-8.4772
di	-8.47735
la	-8.47747
▁danh	-8.47841
Nhĩ	-8.47955
mục	-8.48099
▁đạt	-8.48125
▁tiền	-8.48204
đời	-8.48255
▁lãnh	-8.48934
▁vận	-8.49079
▁Do	-8.49268
▁sang	-8.49287
▁gây	-8.49385
▁Thổ	-8.4965
▁cây	-8.49906
▁Chính	-8.49989
▁tây	-8.50433
hàng	-8.51004
▁lấy	-8.51037
em	-8.51127
r	-8.51137
phương	-8.51515
ứng	-8.51545
▁sân	-8.51577
▁giao	-8.51657
yếu	-8.51712
ngữ	-8.5185
tướng	-8.51905
lại	-8.52384
▁ghi	-8.52417
▁Nga	-8.5245
▁nghiên	-8.52695
▁cung	-8.53137
ca	-8.53207
▁phản	-8.53223
chất	-8.53432
▁phòng	-8.5378
loại	-8.53837
kiện	-8.53912
thời	-8.5392
tự	-8.54209
▁gia	-8.54309
▁triệu	-8.54702
▁động	-8.5507
kế	-8.55258
vậy	-8.5549
▁Người	-8.55536
▁giữ	-8.55754
ý	-8.55784
da	-8.56137
▁mỗi	-8.56376
▁nào	-8.56555
▁lịch	-8.56662
chủ	-8.56739
▁Sự	-8.56789
Minh	-8.5684
▁Hải	-8.5687
đới	-8.57603
▁Quận	-8.57645
ảnh	-8.57677
▁Hội	-8.57689
huy	-8.57692
▁tiêu	-8.57944
▁núi	-8.57947
▁Trần	-8.58024
▁O	-8.5817
▁phương	-8.58256
tiếp	-8.58284
▁Chiến	-8.58511
ma	-8.58611
▁dự	-8.58843
1	-8.59274
is	-8.59278
chí	-8.59345
▁khỏi	-8.59355
▁Đây	-8.59635
tượng	-8.59855
hưởng	-8.5987
▁Tháng	-8.60044
▁thân	-8.60168
on	-8.60192
▁bang	-8.60559
▁vòng	-8.60889
▁Lý	-8.60904
▁tốt	-8.60911
▁U	-8.61015
địch	-8.61104
nhạc	-8.61185
cử	-8.61325
▁cái	-8.61806
▁cấp	-8.61899
▁cổ	-8.62127
▁cần	-8.62228
mặt	-8.62252
niên	-8.62824
▁An	-8.63024
▁New	-8.63036
ly	-8.63193
▁tỷ	-8.6343
▁giúp	-8.63728
▁đề	-8.63813
giá	-8.63999
▁m	-8.6415
Nha	-8.64169
▁16	-8.64209
▁độ	-8.65121
▁đảo	-8.65125
▁dẫn	-8.65683
cơ	-8.65871
địa	-8.65989
es	-8.66009
sống	-8.66054
qua	-8.66098
um	-8.66203
thuyết	-8.66232
▁so	-8.66249
▁Không	-8.66312
▁N	-8.66344
trai	-8.66626
An	-8.66925
▁khả	-8.67016
▁Tân	-8.67027
▁tư	-8.67123
▁nhện	-8.67362
A	-8.67732
de	-8.67751
là	-8.67899
sắc	-8.68179
▁Lê	-8.68339
▁quy	-8.68561
▁Tại	-8.686
▁14	-8.68656
▁tất	-8.6886
▁2004	-8.6914
▁chơi	-8.6921
▁Chi	-8.69482
▁nguồn	-8.69764
▁13	-8.70091
ng	-8.70309
▁Văn	-8.70425
khí	-8.70483
thảo	-8.70659
▁Đảng	-8.70726
▁30	-8.70831
▁2000	-8.70904
▁chia	-8.71231
▁18	-8.71273
văn	-8.7141
giả	-8.71512
▁chương	-8.71512
ban	-8.71553
toàn	-8.72067
▁xem	-8.72212
▁Vương	-8.72212
thông	-8.72221
▁Giáo	-8.7227
▁17	-8.724
▁lực	-8.72567
▁2009	-8.72955
to	-8.73047
C	-8.73082
▁yêu	-8.73211
kích	-8.73541
▁V	-8.73675
đoạn	-8.73695
hữu	-8.73831
▁chức	-8.74103
▁Hồ	-8.74144
▁tuần	-8.74531
▁nội	-8.7459
▁2008	-8.74595
Văn	-8.74737
▁rồi	-8.75504
▁độc	-8.75618
▁chung	-8.75758
▁album	-8.75831
S	-8.75863
▁trực	-8.7592
▁bệnh	-8.75945
▁hợp	-8.76012
đất	-8.76118
▁Có	-8.76156
▁to	-8.7616
bại	-8.76179
le	-8.76293
▁chuyên	-8.76472
▁Geometridae	-8.76711
▁Trường	-8.76724
phân	-8.77248
ch	-8.77377
▁du	-8.77607
đảo	-8.77713
▁Âu	-8.77823
▁pháo	-8.77889
▁quyết	-8.78203
hạn	-8.78431
phần	-8.78448
thường	-8.78735
▁Nhân	-8.7877
▁phép	-8.78911
sư	-8.78944
▁khiến	-8.78963
▁chất	-8.78971
Ban	-8.79053
cập	-8.79064
Xô	-8.79846
▁triều	-8.80021
ed	-8.80225
▁báo	-8.80451
▁hạt	-8.80626
báo	-8.808
▁2005	-8.80883
▁gặp	-8.80904
z	-8.81489
Châu	-8.817
▁xuống	-8.81858
▁ít	-8.81939
▁Thanh	-8.81942
▁Họ	-8.82178
b	-8.82181
▁biểu	-8.82196
▁duy	-8.8242
dục	-8.82458
▁25	-8.83119
▁ảnh	-8.83511
▁dòng	-8.83538
▁chế	-8.83648
▁mọi	-8.83672
▁giáo	-8.83767
lớn	-8.83827
▁đế	-8.83908
người	-8.83967
▁bỏ	-8.8419
▁trẻ	-8.84484
no	-8.84705
tỏ	-8.8476
▁nền	-8.84831
▁xác	-8.85308
te	-8.85449
lệnh	-8.85673
▁chạy	-8.85874
▁vũ	-8.85977
hoàng	-8.86286
ne	-8.86344
▁19	-8.86347
phục	-8.8636
▁bầu	-8.86456
▁Con	-8.86504
▁0	-8.86507
▁nhanh	-8.86564
trò	-8.8665
tịch	-8.86661
ga	-8.8675
thúc	-8.86999
▁Noctuidae	-8.87074
▁hướng	-8.87623
▁ruồi	-8.8767
ing	-8.87691
▁quay	-8.87701
▁21	-8.87718
nghiệm	-8.88101
▁kế	-8.88514
man	-8.88522
▁rộng	-8.88686
▁ngoại	-8.88784
tưởng	-8.88796
mạng	-8.88934
▁xếp	-8.88988
thần	-8.89034
ro	-8.89066
▁giành	-8.89152
▁ngôi	-8.89186
▁phiên	-8.89215
hộ	-8.89275
li	-8.89289
▁mật	-8.89371
luận	-8.89469
▁lớp	-8.8951
cư	-8.89592
▁cộng	-8.89605
▁tướng	-8.8961
thưởng	-8.89738
cáo	-8.90047
▁Cao	-8.90522
▁giáp	-8.90629
▁kiểm	-8.90666
▁hoàng	-8.90705
▁giết	-8.90753
▁phục	-8.90842
▁II	-8.91
chuyển	-8.91159
▁kỹ	-8.91297
Nội	-8.91388
lộ	-8.91571
thân	-8.91744
▁1999	-8.91993
▁Đô	-8.92387
▁riêng	-8.92516
▁biên	-8.92683
3	-8.92703
▁thương	-8.92992
▁Đồng	-8.93089
▁nhằm	-8.9323
đốc	-8.9328
sa	-8.93302
thư	-8.93541
▁ngay	-8.93567
▁phổ	-8.93686
thắng	-8.93932
cứ	-8.94108
▁thấp	-8.94109
Giang	-8.94143
▁Hàn	-8.94289
▁lưu	-8.9454
▁thiên	-8.94559
▁nếu	-8.94963
▁Lưu	-8.94976
▁rừng	-8.95082
nghị	-8.95145
▁Thế	-8.95151
danh	-8.95183
▁23	-8.95583
đối	-8.95618
trùng	-8.95632
trúc	-8.95712
▁W	-8.95787
▁lời	-8.95907
▁22	-8.96005
▁Ngoài	-8.96133
▁nghệ	-8.9629
▁ý	-8.96299
▁vàng	-8.96457
Tiên	-8.96488
luyện	-8.96519
Long	-8.97274
▁tin	-8.973
f	-8.97529
B	-8.97605
▁Cerambycidae	-8.97654
khúc	-8.97737
▁mét	-8.97844
tăng	-8.97881
▁Di	-8.97894
dung	-8.97918
mềm	-8.98019
▁giai	-8.98045
▁Kim	-8.98049
tập	-8.98396
tiêu	-8.98445
▁Lịch	-8.9874
M	-8.98926
▁Ủy	-8.98949
▁giảm	-8.98961
Tông	-8.99132
▁American	-8.99168
tư	-8.99191
▁Tiểu	-8.99251
▁quản	-8.99269
▁bạn	-8.9929
▁dương	-8.99423
hạng	-8.99616
▁đứng	-8.99815
▁giá	-8.99824
▁tuyên	-8.9995
K	-9.00055
▁Ý	-9.00193
▁bổ	-9.00211
biểu	-9.00304
Thành	-9.00315
x	-9.00436
idae	-9.00541
kiến	-9.00832
thương	-9.00875
phận	-9.00885
tố	-9.00954
hoạch	-9.01206
khẩu	-9.01229
5	-9.01242
▁24	-9.01261
▁Quảng	-9.01418
▁hầu	-9.01497
▁mức	-9.01539
▁Ban	-9.01576
ensis	-9.01588
▁dựa	-9.01594
ar	-9.01653
▁mạnh	-9.01693
▁thần	-9.01864
▁vương	-9.0188
▁Cúc	-9.01912
▁bình	-9.01952
▁môi	-9.02078
▁Sa	-9.02128
phòng	-9.0264
▁Đường	-9.02696
0	-9.02861
▁phi	-9.03045
▁mục	-9.03047
▁lập	-9.03062
ni	-9.03113
▁nữa	-9.0322
▁tay	-9.03311
mắt	-9.03436
▁hạng	-9.03594
ka	-9.03609
▁100	-9.03879
nghệ	-9.04166
▁cải	-9.04186
lạc	-9.04263
▁Y	-9.0438
▁Ở	-9.04721
▁Na	-9.0474
▁coi	-9.04926
thổ	-9.04927
▁cha	-9.05137
▁sức	-9.05224
D	-9.05241
▁ISBN	-9.05405
▁đạo	-9.05559
▁kể	-9.0564
ri	-9.05745
re	-9.05907
▁bắn	-9.05958
▁Tập	-9.0608
ti	-9.06415
▁phá	-9.06488
hại	-9.06504
▁nông	-9.06588
▁2012	-9.06677
▁đa	-9.0676
dự	-9.06773
chơi	-9.06839
▁nặng	-9.06897
▁hạ	-9.07065
▁hiệu	-9.07076
ba	-9.07162
xỉ	-9.07168
▁2001	-9.07359
hết	-9.07374
thích	-9.07644
dài	-9.07727
nguyên	-9.0794
▁quần	-9.08214
me	-9.08301
▁thủ	-9.0836
trung	-9.08444
▁Hồng	-9.0862
▁rõ	-9.0891
điện	-9.09118
▁thủy	-9.09328
▁Địa	-9.09362
▁chim	-9.09404
dụ	-9.09603
Hoa	-9.09611
▁muốn	-9.09695
▁chiều	-9.09757
luật	-9.09824
▁tối	-9.09841
▁Chủ	-9.09909
▁bờ	-9.1037
▁Điều	-9.10387
co	-9.10417
▁bàn	-9.10469
▁kéo	-9.10473
▁cố	-9.10615
▁thắng	-9.10703
▁hỗ	-9.10804
tuyển	-9.1083
▁2013	-9.10892
▁ký	-9.10895
▁Mã	-9.11114
▁đôi	-9.11195
đai	-9.11334
▁Đến	-9.1157
rộng	-9.11598
▁đĩa	-9.11883
▁2014	-9.11931
▁mặc	-9.1194
ký	-9.12644
▁Phó	-9.12781
▁trao	-9.12922
nam	-9.12986
▁lễ	-9.13261
/	-9.13273
▁2016	-9.13275
▁2015	-9.1343
Đông	-9.13639
▁bảng	-9.13655
▁chữ	-9.13672
ăn	-9.13724
▁lâu	-9.13733
nên	-9.13931
▁Khu	-9.13973
▁khởi	-9.13976
nữ	-9.13979
▁tôn	-9.14528
thực	-9.14563
giờ	-9.14593
▁chứa	-9.14598
▁lá	-9.14661
▁Viện	-9.14756
4	-9.15068
Trung	-9.15112
▁lạc	-9.15143
▁Al	-9.15148
Hòa	-9.15182
gái	-9.15233
trận	-9.15271
▁đáng	-9.1528
T	-9.15406
▁thất	-9.15439
▁31	-9.15469
▁Hy	-9.15682
âm	-9.15705
tus	-9.15778
▁gì	-9.15863
▁phái	-9.15919
▁cảnh	-9.15924
▁xa	-9.15926
mi	-9.15943
▁dạng	-9.16002
▁bốn	-9.16101
▁2002	-9.16122
▁2003	-9.16197
▁biến	-9.16399
▁dành	-9.16492
chương	-9.16758
▁áp	-9.16901
▁vấn	-9.16959
▁San	-9.17261
cao	-9.17428
sao	-9.17547
▁Đậu	-9.17562
or	-9.17796
th	-9.17913
thuộc	-9.1799
▁chịu	-9.18345
▁Á	-9.18358
dạng	-9.18394
bỏ	-9.18514
mạnh	-9.18594
lịch	-9.18735
▁Đài	-9.19242
▁thập	-9.19437
bi	-9.1947
chi	-9.19964
▁cảm	-9.20117
Nguyên	-9.20141
xã	-9.20178
se	-9.20414
▁Hai	-9.20838
niệm	-9.21205
▁chứng	-9.21236
▁ta	-9.21553
ana	-9.21602
▁Chu	-9.22259
▁dịch	-9.22307
▁khó	-9.22374
▁trắng	-9.22804
▁xảy	-9.22809
dẫn	-9.22887
▁mẹ	-9.22913
▁an	-9.22928
▁Thiên	-9.23045
▁mm	-9.23063
Chí	-9.23112
▁vượt	-9.2313
chọn	-9.23132
▁Phi	-9.23153
▁vốn	-9.23177
▁ngành	-9.23243
▁Ma	-9.23387
▁rút	-9.23895
cảnh	-9.23915
▁Cô	-9.23961
▁cũ	-9.2404
ương	-9.24132
▁súng	-9.24209
▁ấy	-9.24215
lo	-9.24384
ya	-9.24402
▁Huyện	-9.24414
▁Cơ	-9.24432
▁hãng	-9.24551
▁khá	-9.24614
mo	-9.24716
máy	-9.24754
▁Le	-9.24818
thái	-9.24846
▁đàn	-9.25182
▁tuyến	-9.25233
này	-9.25293
vì	-9.253
quản	-9.25301
ton	-9.2535
▁50	-9.25456
ủy	-9.25564
đồ	-9.25567
quyết	-9.25679
el	-9.25701
▁Minh	-9.25736
thiết	-9.25748
truyền	-9.25926
▁hải	-9.26057
▁thiếu	-9.26127
▁đá	-9.26206
▁ốc	-9.26411
▁sai	-9.26576
▁nhìn	-9.26585
Bắc	-9.26648
Mã	-9.26648
▁Lan	-9.26973
▁giờ	-9.2719
▁kiểu	-9.27321
▁Gia	-9.27326
▁xung	-9.27703
▁khai	-9.2773
▁1998	-9.27743
▁X	-9.2786
Đức	-9.27943
▁Erebidae	-9.27997
▁ngắn	-9.28027
▁tái	-9.2804
▁John	-9.28151
trang	-9.2816
Hải	-9.28166
▁dễ	-9.28231
▁Bà	-9.28235
bằng	-9.28283
▁chọn	-9.28411
▁cạnh	-9.28518
pa	-9.28527
si	-9.28747
▁Ca	-9.28833
▁ngựa	-9.28956
suất	-9.29003
▁điểm	-9.29042
theo	-9.29486
▁Triều	-9.29587
▁thư	-9.29647
w	-9.29657
gốc	-9.29776
▁hòa	-9.2994
▁Tư	-9.29966
▁Hòa	-9.30001
▁sâu	-9.30012
▁dữ	-9.30216
▁trả	-9.30393
lửa	-9.30525
▁thích	-9.30651
mại	-9.30661
▁Red	-9.3078
toán	-9.30813
▁Trương	-9.31037
▁chú	-9.31319
N	-9.31414
▁nhiệm	-9.31531
▁28	-9.31577
▁đầy	-9.3163
tay	-9.31633
lược	-9.31669
dương	-9.31903
▁đào	-9.32077
lợi	-9.32344
▁26	-9.32439
v	-9.32456
▁for	-9.32496
vương	-9.32757
Tây	-9.33025
go	-9.33143
▁ngôn	-9.33154
▁khí	-9.33362
▁De	-9.33381
▁Phần	-9.33471
▁căn	-9.33488
ko	-9.33511
ce	-9.33726
▁luôn	-9.33926
▁Kinh	-9.34198
▁Thủ	-9.34283
ước	-9.34334
▁Bảo	-9.34379
ki	-9.34627
▁mua	-9.3482
▁In	-9.34826
▁Hán	-9.34911
▁giám	-9.34962
▁Với	-9.35026
▁mạng	-9.35524
▁vừa	-9.35587
▁27	-9.35703
▁tòa	-9.35821
đích	-9.35953
▁World	-9.3606
▁thịt	-9.36119
tu	-9.36197
▁cửa	-9.36207
chứng	-9.36215
thờ	-9.36338
ella	-9.36359
ea	-9.36374
phá	-9.36401
▁!	-9.36408
▁Thông	-9.3661
▁bụng	-9.36672
soát	-9.36674
P	-9.36959
▁hộ	-9.37073
▁Thượng	-9.37118
▁khóa	-9.37281
bào	-9.37636
j	-9.37708
▁chuẩn	-9.38003
▁tò	-9.38315
York	-9.38344
tiết	-9.38379
▁Vũ	-9.38554
vò	-9.38585
▁bức	-9.38744
▁suy	-9.38818
▁Thụy	-9.38827
▁Thời	-9.38908
▁Mặt	-9.38908
Đế	-9.39047
▁Mặc	-9.3908
phí	-9.39294
▁vợ	-9.39309
▁Úc	-9.39317
▁mối	-9.39333
trì	-9.39353
6	-9.39417
trạng	-9.39536
kê	-9.39756
▁vành	-9.39904
▁Ngô	-9.40123
bo	-9.40134
họa	-9.40142
▁Đội	-9.40148
▁chuyến	-9.402
▁khách	-9.40216
▁2017	-9.4023
▁Bình	-9.40245
tình	-9.40341
▁rêu	-9.4042
Mỹ	-9.4043
giáp	-9.40482
▁Long	-9.40561
▁29	-9.40573
▁Đế	-9.40693
▁trái	-9.40696
▁Brasil	-9.40753
Phi	-9.40839
▁Ai	-9.40904
▁đen	-9.41082
et	-9.41105
▁Tam	-9.41235
▁Việc	-9.41378
▁Vì	-9.41472
son	-9.41485
▁at	-9.41526
▁thử	-9.41527
▁Ichneumonidae	-9.41552
ae	-9.4158
▁Phân	-9.41603
như	-9.41679
8	-9.41905
Ninh	-9.42195
cộng	-9.422
▁cận	-9.42312
▁rời	-9.42347
▁song	-9.42378
▁tồn	-9.42626
ii	-9.427
▁on	-9.43098
E	-9.43148
▁Truy	-9.43252
▁40	-9.43532
▁1990	-9.43677
giao	-9.43779
▁kẻ	-9.43959
▁thuốc	-9.44115
der	-9.44133
▁đem	-9.44134
▁Trước	-9.44157
G	-9.44256
ina	-9.44292
▁kiến	-9.4444
▁truyện	-9.44586
Species	-9.44715
▁Nhưng	-9.44985
▁khối	-9.45041
▁Cuộc	-9.45104
▁tuy	-9.45151
▁Giám	-9.45172
League	-9.45716
▁Tổ	-9.45755
con	-9.45915
Thái	-9.45991
chuyện	-9.46061
tá	-9.46157
▁hồ	-9.46381
▁tôi	-9.46446
▁Karnataka	-9.46507
H	-9.46521
▁đồ	-9.46527
lan	-9.46819
▁Sư	-9.46873
land	-9.4696
▁đạn	-9.46968
phóng	-9.47127
▁So	-9.47157
▁Sân	-9.47185
ông	-9.4733
▁Hiệp	-9.4747
▁buổi	-9.47515
▁thanh	-9.47627
▁Trang	-9.47821
▁đảng	-9.48062
▁List	-9.48083
phát	-9.4814
▁Hymenoptera	-9.48146
Vương	-9.48164
thanh	-9.4817
đường	-9.48336
thoại	-9.48549
ter	-9.48695
hướng	-9.48854
ge	-9.4889
vấn	-9.49004
loạn	-9.49283
Sa	-9.49318
▁ex	-9.49357
▁Ta	-9.49548
cảm	-9.49561
▁Phật	-9.49565
7	-9.49591
▁Tên	-9.49599
chuẩn	-9.4971
▁tehsil	-9.49765
▁mực	-9.49899
Lai	-9.49941
La	-9.50031
▁Rêu	-9.50357
▁Cha	-9.50367
▁gốc	-9.50372
biển	-9.50581
va	-9.50713
tải	-9.50719
per	-9.50728
▁ủng	-9.50849
▁Ga	-9.50905
▁da	-9.50922
▁nuôi	-9.50952
▁Ar	-9.51088
▁mẫu	-9.51122
khách	-9.51126
▁ma	-9.51196
▁cuốn	-9.51273
chóng	-9.51426
giác	-9.51529
đô	-9.51548
ata	-9.51643
▁linh	-9.51806
Vũ	-9.5205
st	-9.52145
▁El	-9.5215
hiểm	-9.52184
▁Nếu	-9.52202
▁Về	-9.52211
▁Paris	-9.52228
su	-9.52274
khi	-9.52299
▁đủ	-9.52303
▁Saint	-9.52466
tài	-9.52478
phạm	-9.5257
▁nhờ	-9.52588
▁nâng	-9.52639
▁bước	-9.5275
Hóa	-9.528
giữ	-9.52811
sóng	-9.53107
quanh	-9.53165
▁IUCN	-9.5331
ngoài	-9.53443
▁đời	-9.53454
chúng	-9.53788
▁doanh	-9.53933
nh	-9.53996
▁1996	-9.54038
▁Lạp	-9.54056
▁1997	-9.54246
cực	-9.54428
lục	-9.54432
▁INSEE	-9.54468
xác	-9.54552
ry	-9.5459
▁Đặc	-9.54646
oides	-9.54676
▁Ko	-9.54744
▁huấn	-9.54776
kim	-9.54817
cận	-9.54857
os	-9.54987
▁đổ	-9.54996
▁formula	-9.55028
Á	-9.55059
as	-9.55065
vọng	-9.55117
tri	-9.55257
▁tranh	-9.5527
▁Hiện	-9.55287
Định	-9.55353
▁ngăn	-9.55367
▁đỏ	-9.55455
▁tinh	-9.55555
Thanh	-9.55581
▁tách	-9.55761
doanh	-9.55778
▁Phạm	-9.56117
gi	-9.5612
▁la	-9.56128
▁bay	-9.56282
▁đăng	-9.56439
trào	-9.56565
O	-9.56663
▁Re	-9.56683
tiến	-9.56873
▁Thị	-9.56888
▁chó	-9.56906
▁Chỉ	-9.57213
▁hết	-9.57288
Đất	-9.57437
dọa	-9.57506
ke	-9.57548
thi	-9.57687
▁bom	-9.577
thu	-9.57999
tuyến	-9.58089
vài	-9.58116
▁nguy	-9.5813
▁No	-9.5822
▁Co	-9.58363
▁Khoa	-9.58425
Xuân	-9.5859
at	-9.58636
▁Me	-9.58677
diệt	-9.58697
▁lợi	-9.58863
bàn	-9.5892
Quang	-9.58994
▁xanh	-9.59086
▁Vĩnh	-9.59116
thiện	-9.59118
hồi	-9.59159
▁sứ	-9.59187
pe	-9.59264
ve	-9.59264
lưu	-9.59415
▁Tỉnh	-9.59422
▁cậu	-9.59433
▁Ka	-9.59438
▁phút	-9.59671
les	-9.59808
▁Phú	-9.59966
▁Du	-9.59992
hôn	-9.60262
ria	-9.6028
trưng	-9.60358
▁thí	-9.60387
Hà	-9.60499
▁xâm	-9.60581
za	-9.60628
▁TCN	-9.60636
khai	-9.6105
▁khắp	-9.61096
▁đảm	-9.61274
▁Ra	-9.61524
▁đọc	-9.61531
▁cấu	-9.61536
▁Phương	-9.6155
▁Nhiều	-9.61621
kể	-9.61733
ha	-9.61785
▁Canada	-9.61795
▁Z	-9.61821
▁đe	-9.6183
▁nghe	-9.6184
▁đài	-9.62006
▁kích	-9.62071
cụ	-9.62169
▁hậu	-9.62361
▁Nguyên	-9.62531
▁Threatened	-9.62537
thao	-9.62635
▁nối	-9.62654
▁1991	-9.62775
be	-9.62784
▁Để	-9.63051
▁phù	-9.63065
▁lông	-9.63125
▁Trái	-9.6315
▁gửi	-9.63342
khiển	-9.63354
Tử	-9.6338
môn	-9.63517
Hưng	-9.63599
▁tuyệt	-9.63835
▁trưởng	-9.64033
▁Trịnh	-9.64085
▁Áo	-9.64115
▁băng	-9.6418
lai	-9.64306
▁chấp	-9.64324
tức	-9.64357
▁thật	-9.6456
ic	-9.64607
▁Trận	-9.64629
▁1995	-9.64657
ja	-9.64914
▁Cách	-9.65374
▁sách	-9.6543
Thánh	-9.65493
▁suốt	-9.65536
▁Bài	-9.65581
Tư	-9.65708
tes	-9.65729
▁Cho	-9.65808
tốc	-9.65961
▁tầm	-9.66079
▁truy	-9.66091
▁dần	-9.66316
▁Cá	-9.66375
▁luật	-9.66492
po	-9.66527
Thị	-9.66653
▁loạt	-9.66722
ck	-9.66762
mưu	-9.66834
▁mã	-9.6687
▁by	-9.66906
▁1980	-9.6697
▁Châu	-9.66987
▁cực	-9.66993
lis	-9.67033
id	-9.67044
▁Chrysomelidae	-9.67155
cổ	-9.67174
lu	-9.67244
▁Cục	-9.67298
▁tín	-9.67446
V	-9.67454
R	-9.67583
▁Mo	-9.67654
▁sư	-9.67815
▁xử	-9.67923
ur	-9.67926
▁com	-9.67968
▁buộc	-9.67987
▁Go	-9.68048
▁1992	-9.68097
▁Ha	-9.68128
men	-9.68397
den	-9.68584
thuận	-9.68747
▁bão	-9.68776
it	-9.68779
Lâm	-9.68809
xét	-9.68817
▁FactFinder	-9.68856
▁binh	-9.69109
wa	-9.69124
▁St	-9.69251
▁côn	-9.6935
chỉ	-9.69408
Cup	-9.69442
9	-9.69765
▁ứng	-9.69921
▁thơ	-9.69943
▁sớm	-9.69956
▁ai	-9.70084
ten	-9.70558
▁Tòa	-9.70938
▁chỗ	-9.70966
Thiên	-9.71032
từ	-9.71098
▁trò	-9.71175
W	-9.71202
chúa	-9.71362
Loan	-9.71489
▁?	-9.71556
▁lao	-9.71789
▁tức	-9.71853
▁đổi	-9.71876
▁2018	-9.71882
▁v	-9.71895
xuyên	-9.71945
▁đúng	-9.72017
tiện	-9.72186
▁bò	-9.72259
không	-9.72353
tum	-9.72453
▁Mi	-9.72507
hủy	-9.72622
ine	-9.72624
▁tầng	-9.72629
▁dọc	-9.72729
▁1945	-9.72731
▁cai	-9.72927
▁1975	-9.7295
▁yếu	-9.7298
▁Eu	-9.72984
▁Tri	-9.73282
▁kênh	-9.73497
▁’	-9.73599
▁Hệ	-9.73603
▁vài	-9.73784
▁chùa	-9.73988
alis	-9.74051
thù	-9.74074
▁1993	-9.74243
du	-9.74278
lĩnh	-9.74384
▁Nghệ	-9.74433
▁xin	-9.74485
▁Hậu	-9.74782
▁Bo	-9.74785
▁Hồi	-9.74914
▁+	-9.75015
▁trải	-9.75238
ver	-9.75352
▁Arctiinae	-9.75434
thác	-9.75562
▁phường	-9.75816
ol	-9.75861
▁Mùa	-9.75902
▁Tống	-9.75939
▁Ne	-9.76057
▁1994	-9.76168
▁Thiếu	-9.76253
▁Si	-9.76274
I	-9.76397
▁d	-9.76405
▁mạch	-9.76523
F	-9.76561
mật	-9.76581
▁phê	-9.76701
trời	-9.76704
▁Triệu	-9.7681
ci	-9.7698
▁60	-9.77007
▁Po	-9.77175
▁hàm	-9.77193
Yên	-9.7724
cấu	-9.77399
thước	-9.77756
Cổ	-9.77808
sung	-9.77956
ku	-9.78147
Đình	-9.78205
▁bãi	-9.78207
▁thú	-9.78217
▁sáu	-9.78334
▁nay	-9.78355
▁cắt	-9.78416
sen	-9.78452
▁lục	-9.785
▁vi	-9.78533
L	-9.78598
▁Thiến	-9.78654
▁xứ	-9.78798
tan	-9.78894
▁dầu	-9.78938
▁Sông	-9.78982
ley	-9.79154
ji	-9.79161
▁Su	-9.79217
▁đỉnh	-9.79224
chỉnh	-9.79247
▁Phan	-9.79268
tồn	-9.79396
iana	-9.79467
thiệu	-9.79577
▁quý	-9.79673
▁III	-9.79677
▁thái	-9.7972
▁tội	-9.79843
web	-9.79929
▁phóng	-9.80038
▁Vi	-9.80161
Kinh	-9.802
▁Se	-9.80201
trụ	-9.80251
▁Para	-9.80478
chung	-9.80553
▁sao	-9.80774
▁em	-9.80851
▁ví	-9.80905
Sĩ	-9.80997
▁kim	-9.81072
sáng	-9.81182
▁khô	-9.81369
▁ẩm	-9.81408
cố	-9.81462
bày	-9.81549
▁game	-9.81683
▁Tôn	-9.81694
▁siêu	-9.81774
kiếm	-9.81882
ula	-9.82005
▁Trên	-9.82052
mer	-9.8208
▁nắm	-9.82216
▁Cuối	-9.82289
▁chẳng	-9.82669
▁bí	-9.82689
▁kịch	-9.82751
é	-9.82792
trục	-9.82794
▁máu	-9.82864
▁Ni	-9.82928
▁lĩnh	-9.83021
▁tiết	-9.83087
gen	-9.83094
dưỡng	-9.83117
▁vĩ	-9.83167
atus	-9.83197
▁kg	-9.8331
▁gà	-9.83325
▁Cập	-9.83478
tor	-9.83577
ler	-9.83757
▁ước	-9.83805
▁°	-9.839
đa	-9.84057
aria	-9.84066
vua	-9.84139
▁thừa	-9.84151
giản	-9.8427
ô	-9.84349
mus	-9.8453
▁nghi	-9.84556
phối	-9.84611
▁món	-9.84719
lẽ	-9.84729
▁Bồ	-9.84945
▁khủng	-9.84953
▁quảng	-9.84959
▁tốc	-9.85021
chủng	-9.85069
▁Yên	-9.85124
▁Man	-9.85146
Điển	-9.85544
▁kháng	-9.85639
cha	-9.85711
▁Quan	-9.85763
▁video	-9.85797
▁Thống	-9.85826
▁To	-9.8587
▁săn	-9.85911
▁1970	-9.85924
▁sur	-9.85974
tước	-9.85993
▁sửa	-9.86041
kính	-9.86218
Phong	-9.86261
ura	-9.86292
▁1989	-9.86448
chia	-9.86475
điển	-9.86541
tia	-9.86639
khăn	-9.8664
ngờ	-9.86662
mẫu	-9.86677
▁sẵn	-9.86842
▁Da	-9.86993
bật	-9.87334
▁gắn	-9.87544
▁rơi	-9.87597
Lộc	-9.87618
▁lính	-9.87833
▁Lo	-9.87906
▁et	-9.88011
▁hiểu	-9.88038
▁quê	-9.88043
▁Mông	-9.88141
▁cử	-9.88225
trữ	-9.88236
ngầm	-9.88238
▁Đào	-9.88272
▁thoát	-9.88384
▁nhẹ	-9.88556
ngôi	-9.88596
▁1988	-9.88697
▁cầm	-9.88763
khu	-9.88807
càng	-9.88831
khoa	-9.88993
khỏe	-9.89035
▁Or	-9.89066
▁Là	-9.89149
▁mời	-9.89171
che	-9.89203
▁cm	-9.89214
ru	-9.89214
▁lòng	-9.89238
▁quanh	-9.89241
▁History	-9.89244
▁thờ	-9.89311
ek	-9.89313
▁Sài	-9.89392
▁California	-9.8962
đủ	-9.8966
▁màn	-9.89748
▁Thạch	-9.90017
▁Elateridae	-9.90026
▁đền	-9.90122
▁Phổ	-9.90293
aceae	-9.90389
ner	-9.90437
▁Câu	-9.90449
▁ha	-9.90458
▁Như	-9.90513
▁Số	-9.90588
gắng	-9.90624
▁Be	-9.90632
cy	-9.90703
▁Tiền	-9.90712
góp	-9.90792
tắc	-9.90801
chiếu	-9.90927
sh	-9.90941
mô	-9.90992
▁1960	-9.91174
so	-9.91207
▁dây	-9.91403
▁Pro	-9.91407
▁giả	-9.91481
▁Sở	-9.91556
▁bánh	-9.91566
đoán	-9.9159
▁Paul	-9.91603
▁thiệt	-9.91609
▁von	-9.91611
tàng	-9.91646
Ngọc	-9.91675
rus	-9.91679
bảo	-9.91735
hương	-9.9175
▁đẹp	-9.91872
tống	-9.91902
lin	-9.91932
phán	-9.91974
▁nửa	-9.92075
▁USD	-9.92155
▁xương	-9.92335
▁nhập	-9.92402
▁Đầu	-9.92538
▁nghiêm	-9.92602
Press	-9.92655
don	-9.92688
▁He	-9.92859
áp	-9.92899
Việt	-9.93004
ad	-9.93012
▁tu	-9.93012
gan	-9.93015
trách	-9.93015
▁80	-9.93029
▁dấu	-9.93054
thơ	-9.93126
▁bề	-9.93229
▁Cũng	-9.9325
Thủy	-9.93268
▁tránh	-9.93479
▁Nữ	-9.93531
▁ấn	-9.93609
Y	-9.93637
▁Lực	-9.93655
phong	-9.93825
il	-9.93934
▁hữu	-9.94024
sch	-9.9419
▁tù	-9.94314
▁London	-9.9435
▁ánh	-9.94386
sức	-9.94403
ger	-9.94511
xạ	-9.94512
▁chiếu	-9.9452
▁mưa	-9.9471
▁1986	-9.94767
Cộng	-9.94961
▁vây	-9.95018
ul	-9.95214
ze	-9.95243
ense	-9.95434
chấp	-9.95545
ích	-9.95558
▁đuôi	-9.9564
đổ	-9.95757
▁Ả	-9.9576
▁Kết	-9.958
▁David	-9.95854
▁quả	-9.95926
cường	-9.95947
▁Robert	-9.96043
▁Tào	-9.96101
▁môn	-9.96103
▁Đoàn	-9.96214
▁Lục	-9.96253
▁lương	-9.96287
Gòn	-9.96369
▁Sử	-9.96438
bu	-9.96475
▁dãy	-9.96565
Ma	-9.96595
▁Học	-9.96598
▁Phong	-9.96639
▁Tuyên	-9.96654
▁võ	-9.96707
ville	-9.9672
▁William	-9.96787
▁cư	-9.96944
▁Nội	-9.96989
▁Hạ	-9.97096
▁Small	-9.97105
▁Crambidae	-9.97111
▁Dương	-9.97148
ràng	-9.97175
▁with	-9.97198
Phúc	-9.97319
▁sub	-9.97451
▁Phía	-9.97489
▁1942	-9.97489
▁Cầu	-9.97606
▁ngang	-9.97612
▁sở	-9.97707
▁mũi	-9.97803
▁thậm	-9.97933
▁nổ	-9.97967
▁f	-9.98171
▁quỹ	-9.98252
nhiệt	-9.98267
▁Ro	-9.98318
ifolia	-9.98334
▁George	-9.98347
▁đáp	-9.98392
nào	-9.98408
▁35	-9.98438
▁Phát	-9.98442
ium	-9.98479
▁đo	-9.98485
cái	-9.98565
trừ	-9.98576
▁tỉ	-9.98584
▁tạp	-9.98659
▁Tần	-9.98736
buộc	-9.98809
▁sắp	-9.98811
▁Lương	-9.98855
nia	-9.98948
ong	-9.98968
nối	-9.99085
▁Cùng	-9.9925
▁tan	-9.99251
▁200	-9.9933
▁Lễ	-9.99366
▁Được	-9.99377
Âu	-9.99418
▁tai	-9.99464
▁tùy	-9.99512
ica	-9.99534
ei	-9.99538
giám	-9.9954
▁hiệp	-9.99616
Đào	-9.99645
▁JPL	-9.99829
▁Tính	-9.99884
▁from	-10.0011
▁cựu	-10.0022
▁nghỉ	-10.0035
kinh	-10.0039
mộ	-10.0044
U	-10.0045
▁sơ	-10.0047
vong	-10.005
▁Môi	-10.0052
▁Hi	-10.0058
xúc	-10.0061
đẳng	-10.0073
▁nỗ	-10.008
yêu	-10.0085
phái	-10.0087
▁thua	-10.0089
▁Cúp	-10.0113
▁cặp	-10.0115
▁Philippines	-10.0122
ster	-10.0123
▁vườn	-10.0126
▁bi	-10.0135
▁Chương	-10.0136
dia	-10.0137
▁Vua	-10.0139
X	-10.014
▁bé	-10.0146
▁Cổ	-10.0149
pi	-10.0156
▁ngân	-10.0163
▁cừu	-10.0167
▁1985	-10.0173
▁1940	-10.0174
mar	-10.0176
▁Đối	-10.0179
cửa	-10.0179
sia	-10.0191
shi	-10.0195
des	-10.0202
▁Phim	-10.021
nhật	-10.0211
▁hè	-10.0214
▁khẩu	-10.0228
▁1987	-10.0231
Linh	-10.0239
▁ném	-10.0247
▁Tu	-10.0271
▁1979	-10.0272
sắt	-10.0276
▁James	-10.0281
▁thăng	-10.0286
▁ưu	-10.029
▁70	-10.0297
▁lựa	-10.0312
▁trống	-10.0313
chối	-10.032
nes	-10.0321
ir	-10.0325
▁trốn	-10.0333
▁Pe	-10.0337
▁cờ	-10.0338
ion	-10.034
hùng	-10.0346
▁lo	-10.035
▁giấy	-10.0352
▁hôm	-10.0354
▁Bọ	-10.0356
▁Lu	-10.0365
▁Mar	-10.0366
▁1984	-10.0368
▁Body	-10.039
ber	-10.0392
đỡ	-10.0402
▁Ru	-10.0408
▁Album	-10.0414
▁chủng	-10.0415
Ly	-10.042
▁Đạo	-10.0423
▁Bạch	-10.0426
▁Thiết	-10.0426
▁rắn	-10.0433
▁Li	-10.0437
▁Ri	-10.044
▁kỷ	-10.0441
Hiệp	-10.0449
thụ	-10.0453
▁Database	-10.0455
hạ	-10.0458
▁càng	-10.0466
▁phức	-10.0468
▁đoạn	-10.047
lui	-10.047
▁tàn	-10.0473
▁đau	-10.0473
Thuận	-10.0482
odes	-10.0497
môi	-10.0502
▁liền	-10.0509
▁Car	-10.051
Anh	-10.051
▁Võ	-10.052
▁phạm	-10.0525
nạn	-10.053
▁tri	-10.053
▁Đà	-10.0543
J	-10.0555
ác	-10.0557
▁vỏ	-10.0572
độc	-10.0575
▁90	-10.0585
▁hơi	-10.0585
tạp	-10.0598
▁Ki	-10.0601
▁cơn	-10.0605
▁thượng	-10.0607
▁họp	-10.0612
▁Ví	-10.0619
com	-10.062
▁phó	-10.0631
▁đẩy	-10.0637
▁tận	-10.0643
sk	-10.0654
▁trách	-10.0678
▁Ti	-10.0678
zo	-10.0679
mẽ	-10.0689
kì	-10.0698
▁Thu	-10.0701
cus	-10.0753
▁Cẩm	-10.0754
Tân	-10.0757
▁hổ	-10.0757
▁rượu	-10.0757
▁thỏa	-10.0766
▁1981	-10.0774
▁cân	-10.0778
liệt	-10.0782
▁chảy	-10.079
▁cảng	-10.0792
▁miễn	-10.0799
▁45	-10.081
▁hấp	-10.0811
▁cấm	-10.0812
sub	-10.0812
hút	-10.0816
phi	-10.0816
long	-10.0819
▁lệnh	-10.0824
opsis	-10.0829
yo	-10.0838
tha	-10.0843
▁hỏi	-10.0845
▁gỗ	-10.085
▁bác	-10.0873
▁Trichoptera	-10.0874
Bộ	-10.0896
eri	-10.0898
thủy	-10.0905
rãi	-10.0905
▁1941	-10.0908
▁hạm	-10.091
▁ổn	-10.0913
ho	-10.0929
▁Và	-10.0939
ov	-10.0941
▁gió	-10.0941
▁1982	-10.0947
▁1972	-10.0951
by	-10.0952
▁Limoniidae	-10.0954
▁1944	-10.0955
▁hoang	-10.0984
▁Hành	-10.0985
▁University	-10.0987
▁Tấn	-10.0988
Thế	-10.0994
▁Tiêu	-10.0994
▁thuyền	-10.1
▁Nhóm	-10.1006
▁lẫn	-10.1011
▁Kiến	-10.1013
▁đột	-10.102
▁thăm	-10.1021
ven	-10.104
▁Tác	-10.1049
▁Lào	-10.1054
lời	-10.1058
Nhân	-10.107
▁vú	-10.1073
▁chấm	-10.1078
tis	-10.1087
Rập	-10.1089
▁Thường	-10.1093
▁trụ	-10.1098
▁Lúc	-10.1101
dậy	-10.1103
▁Luật	-10.1111
lỵ	-10.1111
▁phe	-10.1125
://	-10.1128
vây	-10.113
▁mười	-10.1131
▁Giao	-10.1134
mon	-10.1134
hoạt	-10.1134
triều	-10.1136
Phú	-10.114
▁Điện	-10.1155
▁trục	-10.1156
▁giảng	-10.1157
ers	-10.1171
▁Indonesia	-10.1171
▁Lee	-10.1181
▁lượt	-10.1183
Gia	-10.119
▁tấm	-10.1193
▁tạm	-10.1201
▁bèn	-10.1202
▁Thứ	-10.1207
Pa	-10.1217
ph	-10.1219
▁Tự	-10.122
▁vịnh	-10.1224
▁đòi	-10.1227
▁đực	-10.1247
▁1983	-10.1273
osa	-10.1273
▁tháp	-10.1276
▁bậc	-10.1277
am	-10.1278
▁Phòng	-10.1279
▁chồng	-10.1279
▁nóng	-10.1288
nguồn	-10.1288
▁dạy	-10.1292
▁Vị	-10.1298
dy	-10.1303
ard	-10.1309
▁hài	-10.1311
▁Tất	-10.1318
▁giọng	-10.132
▁no	-10.1335
▁thôn	-10.1349
▁Phiên	-10.1353
đương	-10.1359
▁1943	-10.1361
Xuyên	-10.1366
▁nghề	-10.1387
▁1978	-10.1389
▁1930	-10.139
▁Pseudo	-10.14
▁Michael	-10.1419
▁1950	-10.1427
▁cụ	-10.1432
▁Sao	-10.1454
▁gái	-10.1458
▁Pa	-10.146
▁can	-10.1464
Me	-10.1481
▁Đan	-10.1483
lòng	-10.1508
▁Mỗi	-10.1508
▁đợt	-10.1521
cho	-10.1523
▁ống	-10.153
▁Israel	-10.1535
▁thuế	-10.154
lễ	-10.1544
▁hư	-10.1558
ris	-10.1558
▁Cát	-10.1563
▁Museum	-10.1601
▁Khánh	-10.1604
▁đoạt	-10.1607
▁Séc	-10.1616
▁Tachinidae	-10.1619
mẹ	-10.1634
que	-10.1636
▁Tài	-10.164
▁hồi	-10.1643
▁tờ	-10.1662
▁nhu	-10.1663
mạc	-10.1675
▁Đinh	-10.1675
fa	-10.1676
zi	-10.169
▁Ngoại	-10.1698
▁trứng	-10.1703
▁mắt	-10.1707
▁Ngụy	-10.1709
▁32	-10.1709
Phương	-10.1712
ny	-10.1714
▁Tiếng	-10.1717
▁Browser	-10.1727
▁Hiến	-10.1729
tán	-10.1741
ngọt	-10.1741
atum	-10.1744
nus	-10.1756
▁phối	-10.1761
▁tường	-10.1766
▁War	-10.1769
▁1976	-10.1799
▁Cả	-10.1804
▁chu	-10.1819
▁khán	-10.1822
▁Sinh	-10.1827
▁pha	-10.1832
▁Grand	-10.1855
Di	-10.1863
▁sóng	-10.1866
▁Vùng	-10.1888
ser	-10.1896
ie	-10.1913
san	-10.1916
▁Natural	-10.1919
nuôi	-10.193
hạm	-10.1942
phim	-10.1942
Z	-10.1947
▁Nguồn	-10.1948
hỏi	-10.195
▁nhảy	-10.1955
▁nâu	-10.1957
▁Lâm	-10.196
io	-10.1964
▁tọa	-10.1968
Du	-10.1972
bá	-10.1977
▁áo	-10.1979
jo	-10.1984
bệnh	-10.1987
▁My	-10.1991
▁Bi	-10.1992
▁Biển	-10.1993
bar	-10.1993
▁Charles	-10.1995
ron	-10.2
truyện	-10.2006
▁Neo	-10.201
▁Hungary	-10.2011
chép	-10.2011
đột	-10.2015
kịch	-10.2027
▁Ja	-10.203
▁trồng	-10.2031
▁1968	-10.2053
▁quán	-10.2055
▁Tương	-10.2056
▁p	-10.2061
▁FC	-10.2062
▁chị	-10.2066
▁sắc	-10.2074
▁Dự	-10.2074
ian	-10.2092
▁xu	-10.2092
châu	-10.2093
▁Ninh	-10.2104
lar	-10.2109
dấu	-10.2114
dàng	-10.2116
un	-10.2117
▁Te	-10.2123
tz	-10.2123
▁Tôi	-10.2125
Lương	-10.2156
▁http	-10.2163
▁trúng	-10.2168
▁Diễn	-10.2176
▁ô	-10.218
▁ngừng	-10.218
sót	-10.2194
▁Nghị	-10.2211
đài	-10.2222
▁dặm	-10.2232
cuộc	-10.2236
▁Yu	-10.2236
tội	-10.2245
▁Illinois	-10.2246
ngũ	-10.225
ak	-10.226
▁Xuân	-10.2267
sứ	-10.2269
▁góp	-10.2288
Công	-10.229
ceae	-10.2296
muốn	-10.2303
nhớ	-10.2305
cánh	-10.2306
Al	-10.2306
Huy	-10.2308
nguyện	-10.2319
ju	-10.232
▁1973	-10.2327
one	-10.2354
res	-10.2355
▁nhánh	-10.2355
ation	-10.2364
hà	-10.2374
▁Quang	-10.2383
▁ngược	-10.2385
ius	-10.2389
Vân	-10.2399
▁chặt	-10.2414
han	-10.2415
▁đám	-10.2417
▁Bí	-10.2427
dứt	-10.2432
anus	-10.2435
Uy	-10.2442
▁góc	-10.2442
ninh	-10.2445
▁1974	-10.2454
▁đứa	-10.2462
hiệp	-10.2462
▁x	-10.2464
▁vạn	-10.2489
▁Ngọc	-10.249
▁kiếm	-10.2491
▁Cảnh	-10.2492
úy	-10.2498
điệu	-10.2501
fi	-10.2506
hát	-10.2508
▁Tình	-10.2537
ll	-10.2541
sóc	-10.2551
▁Thư	-10.2576
▁Lepidoptera	-10.2592
▁Fa	-10.2598
Trị	-10.2599
tệ	-10.2605
United	-10.2606
▁dày	-10.2618
cer	-10.2621
▁đốt	-10.263
▁mồi	-10.2635
hung	-10.2642
▁En	-10.2649
Ba	-10.2653
Hồng	-10.2655
▁Vô	-10.2671
▁nhiễm	-10.2677
pha	-10.2679
▁Air	-10.2684
▁1954	-10.2689
tụ	-10.2692
au	-10.2703
ts	-10.272
▁France	-10.2725
khấu	-10.2749
▁Hal	-10.2753
▁giàu	-10.2757
▁mong	-10.2764
▁1965	-10.2769
▁1977	-10.2783
▁Bên	-10.279
▁Hàng	-10.2799
▁Hầu	-10.28
▁sợ	-10.2816
đuổi	-10.2819
▁khơi	-10.2824
▁hy	-10.2835
▁Ge	-10.2836
tuổi	-10.2837
▁biện	-10.2839
▁Tông	-10.284
can	-10.2845
▁nạn	-10.2855
chữa	-10.2858
ac	-10.2861
đặt	-10.2863
ot	-10.2869
▁hòn	-10.2889
hầu	-10.2889
▁Hoàn	-10.2894
▁cỏ	-10.2895
min	-10.291
▁cháy	-10.2926
▁genus	-10.2936
▁cướp	-10.2943
▁Ngay	-10.295
kh	-10.2951
thiểu	-10.2952
chắn	-10.2961
nổ	-10.2968
▁uống	-10.2969
▁Vòng	-10.2976
▁Cung	-10.2977
▁Hình	-10.2981
ida	-10.2982
▁Nhạc	-10.2986
▁sa	-10.2988
▁lưng	-10.3003
tôi	-10.3004
▁1939	-10.3009
▁lối	-10.3012
Hữu	-10.3021
Zealand	-10.3025
▁thẳng	-10.3026
icus	-10.3028
trích	-10.3037
▁As	-10.3038
▁Bu	-10.3038
vo	-10.3048
▁trăm	-10.3048
▁tước	-10.3052
▁Malaysia	-10.3054
ano	-10.306
chặn	-10.306
▁Van	-10.3061
▁Gi	-10.3063
▁Bằng	-10.3074
Mạch	-10.3087
▁khắc	-10.3092
▁database	-10.3102
hồ	-10.3103
Đại	-10.311
▁1967	-10.3112
▁tặng	-10.3119
inae	-10.3122
▁1946	-10.3146
▁kèm	-10.3148
▁Thủy	-10.3148
▁Mạc	-10.315
▁soạn	-10.3154
▁kiêm	-10.3164
▁Richard	-10.3165
▁Val	-10.3169
thấy	-10.3171
▁trại	-10.3186
▁Thương	-10.3187
ops	-10.3192
▁Kỹ	-10.3194
viết	-10.3194
van	-10.3196
▁Don	-10.3197
eus	-10.3205
▁khám	-10.3213
fer	-10.3216
ran	-10.3221
▁chậm	-10.3222
▁1964	-10.3223
trú	-10.3227
▁Bỉ	-10.3248
▁1971	-10.3248
▁1963	-10.3252
▁Windows	-10.3256
ev	-10.3266
▁hạn	-10.3269
ít	-10.3276
▁tổn	-10.3288
▁300	-10.3289
▁Campuchia	-10.329
phiếu	-10.3305
Hoàng	-10.3309
ẩn	-10.3318
▁nghèo	-10.3319
▁Thể	-10.3324
▁Toàn	-10.3327
▁You	-10.3334
▁Za	-10.3336
▁Nghĩa	-10.3358
▁Mai	-10.3359
dõi	-10.3364
Đô	-10.3366
▁thuận	-10.3369
▁Mục	-10.3371
ens	-10.3378
▁Bar	-10.3379
bán	-10.3383
▁triết	-10.3384
▁Dưới	-10.3403
gọi	-10.3406
Đạo	-10.3406
Kông	-10.3407
▁Song	-10.3414
▁Ngân	-10.3416
▁Chúa	-10.342
ren	-10.3425
▁đồi	-10.3446
▁chăm	-10.3446
je	-10.345
lượt	-10.3453
▁khái	-10.3473
pur	-10.3473
▁Is	-10.3475
thánh	-10.3488
▁Louis	-10.3497
▁mỏ	-10.3503
ara	-10.3513
▁Am	-10.3516
áo	-10.3523
ey	-10.3526
▁tam	-10.3529
▁Dù	-10.3539
thiên	-10.3541
▁khẳng	-10.3542
gu	-10.3548
▁chắc	-10.3552
▁Texas	-10.3555
cãi	-10.3556
▁chứ	-10.356
nghi	-10.3563
▁van	-10.3568
í	-10.3569
▁Washington	-10.357
we	-10.3577
▁Thomas	-10.3577
▁Đỗ	-10.3578
▁Mer	-10.3581
▁ngư	-10.3583
▁tượng	-10.359
▁vẽ	-10.3603
val	-10.3605
thất	-10.3606
▁buôn	-10.3611
▁chìm	-10.3614
▁Singapore	-10.3624
Tiến	-10.3644
www	-10.365
▁cán	-10.365
▁Cor	-10.3656
▁Cần	-10.3662
op	-10.3664
ok	-10.3664
cục	-10.3664
▁trạm	-10.367
▁dừng	-10.3679
đóng	-10.368
lôi	-10.3689
▁Huân	-10.3691
pu	-10.3691
Thọ	-10.3691
▁1920	-10.3693
Trời	-10.3696
ung	-10.3696
fe	-10.3698
ê	-10.3701
Khánh	-10.3707
quán	-10.371
▁Cam	-10.3713
▁65	-10.3714
Finder	-10.3721
lam	-10.3722
Chu	-10.3726
▁Quy	-10.3727
▁ám	-10.3729
xử	-10.373
▁Đặng	-10.3733
▁Cái	-10.3737
ita	-10.3747
▁tám	-10.3749
▁đương	-10.3749
▁Jean	-10.3754
▁kêu	-10.3761
▁West	-10.3762
▁City	-10.3764
sta	-10.3766
▁1969	-10.3773
▁1936	-10.3783
▁ngọn	-10.3789
▁chín	-10.3793
▁Per	-10.38
▁dàn	-10.3805
the	-10.3811
lâm	-10.3818
Bo	-10.3824
▁500	-10.3831
▁Thân	-10.3834
▁vỡ	-10.3836
Đôn	-10.3837
ps	-10.3846
chuồn	-10.385
▁đậu	-10.3851
tảng	-10.3858
▁Luân	-10.3863
▁Em	-10.3864
ther	-10.3868
ut	-10.3872
▁h	-10.3872
sánh	-10.3874
ena	-10.3881
ix	-10.3883
đế	-10.3889
▁Huế	-10.3896
▁Peter	-10.3906
▁đầm	-10.3909
▁lợn	-10.3922
▁México	-10.3924
Tuấn	-10.3925
đơn	-10.3928
▁Vườn	-10.3933
ram	-10.3936
▁Sam	-10.3942
▁quyển	-10.3943
▁toán	-10.3957
khắc	-10.3968
▁hỗn	-10.3975
▁thầy	-10.3977
▁Ver	-10.3978
▁Pi	-10.3981
ros	-10.3998
▁kỵ	-10.4
▁sáp	-10.4002
ero	-10.4003
▁ngàn	-10.4003
thôn	-10.401
▁Top	-10.402
hi	-10.4035
▁Hiếu	-10.4038
▁mắc	-10.4043
▁chúa	-10.4044
▁33	-10.4052
▁Pan	-10.4053
▁Thánh	-10.4055
tây	-10.4057
▁1962	-10.4057
phép	-10.406
▁Hạm	-10.406
im	-10.4061
len	-10.4062
▁Bulbophyllum	-10.4065
▁thảm	-10.4073
▁01	-10.4076
▁Hương	-10.4077
xếp	-10.4078
▁Quản	-10.4078
▁Lữ	-10.4083
▁Sch	-10.4088
▁National	-10.4097
vào	-10.4105
đẩy	-10.411
▁1956	-10.4112
▁Henry	-10.4117
▁1966	-10.412
▁34	-10.4122
ex	-10.4122
Tổ	-10.413
▁liệt	-10.4134
hô	-10.4139
▁thẩm	-10.4141
▁52	-10.4154
▁Đảo	-10.4156
▁USS	-10.4159
▁ngồi	-10.4161
▁Đó	-10.4169
▁38	-10.4173
bra	-10.4175
▁Pennsylvania	-10.4176
▁Martin	-10.4176
xe	-10.4179
▁IV	-10.4182
▁Máy	-10.4186
▁nghĩ	-10.4195
sha	-10.4197
Chi	-10.4204
giải	-10.4206
lia	-10.4208
▁Micro	-10.4209
▁vui	-10.4212
Mi	-10.4213
▁Nghiên	-10.4222
làm	-10.4228
ham	-10.4234
▁Tiến	-10.4238
hoa	-10.4239
▁cột	-10.424
Re	-10.4241
▁Jo	-10.4251
lũng	-10.4253
Kim	-10.4255
▁Ho	-10.4255
tín	-10.4265
▁đồn	-10.4268
▁Tra	-10.427
▁36	-10.4278
vuông	-10.4282
tro	-10.4282
lính	-10.4298
▁Ô	-10.4302
▁chuỗi	-10.4324
uk	-10.4327
▁san	-10.4334
hứng	-10.4341
▁tiêm	-10.4346
Ca	-10.4346
▁Ku	-10.4348
mạch	-10.4355
▁1955	-10.4363
▁Nông	-10.4371
wi	-10.4385
▁Thực	-10.4394
my	-10.4398
tầng	-10.4416
thẳng	-10.4424
▁Tom	-10.4424
ker	-10.4434
▁bạc	-10.4443
▁mái	-10.445
▁Ch	-10.4454
est	-10.4461
▁Par	-10.4462
kan	-10.4467
▁Video	-10.4475
▁47	-10.4477
▁cà	-10.4478
website	-10.4479
▁hương	-10.4495
Đ	-10.45
khổ	-10.4506
▁We	-10.4508
ino	-10.451
Ka	-10.4512
iensis	-10.4515
▁Phụ	-10.4538
osus	-10.454
trương	-10.4546
▁may	-10.4546
pho	-10.4554
sky	-10.4559
▁Official	-10.4561
cung	-10.4564
om	-10.4572
sii	-10.4575
▁del	-10.4578
lưới	-10.4581
▁bảy	-10.4586
ái	-10.4588
▁Viên	-10.459
Na	-10.4599
tặng	-10.4601
▁Maria	-10.4607
▁37	-10.4612
▁tán	-10.4614
sàng	-10.4617
▁chăn	-10.4622
▁lâm	-10.4623
yl	-10.4625
▁ven	-10.4625
Trang	-10.4626
giảm	-10.4642
▁Phúc	-10.4648
▁hắn	-10.4651
▁Cu	-10.4667
ngôn	-10.4676
khuẩn	-10.4688
har	-10.4689
▁Qua	-10.469
kin	-10.469
▁Ukraina	-10.4692
▁hồng	-10.4695
▁nương	-10.4696
qui	-10.47
▁Ya	-10.4703
▁1958	-10.4703
Hạ	-10.4706
▁vuông	-10.4723
▁re	-10.4725
▁CD	-10.4734
▁Asilidae	-10.4734
500	-10.4743
Q	-10.4744
▁đệ	-10.4753
▁khuôn	-10.4755
non	-10.4764
Chủ	-10.4765
Hán	-10.4767
Khắc	-10.477
▁gấp	-10.4774
▁Kế	-10.4777
▁Iran	-10.4778
▁Minnesota	-10.4784
10	-10.4789
▁1938	-10.4789
tica	-10.4797
car	-10.48
kov	-10.4801
▁khuyến	-10.4814
rin	-10.4819
Thượng	-10.4819
xa	-10.4824
ân	-10.4832
▁sữa	-10.4859
ken	-10.4864
▁Quần	-10.4865
sẻ	-10.4872
▁Còn	-10.4882
▁mảnh	-10.4885
gon	-10.4887
▁Huấn	-10.4887
q	-10.4889
▁DC	-10.4891
▁1961	-10.4891
xứ	-10.4892
▁Can	-10.49
▁Er	-10.4905
vin	-10.4905
▁Chiếc	-10.4908
khích	-10.491
▁vở	-10.4911
▁1937	-10.4914
▁cát	-10.4915
▁Love	-10.4915
ment	-10.4917
▁North	-10.4927
▁nòng	-10.4932
Man	-10.4933
eu	-10.494
▁Khoảng	-10.4942
▁Vụ	-10.4949
lồ	-10.4957
▁48	-10.4967
hoảng	-10.4969
▁giam	-10.497
▁lỗi	-10.4977
cỏ	-10.4986
Mar	-10.499
▁tắt	-10.5
▁Music	-10.5003
era	-10.5008
anthus	-10.5011
▁Đa	-10.5013
cal	-10.5014
▁Simon	-10.5018
▁voi	-10.5025
▁1947	-10.5029
tất	-10.5046
▁răng	-10.5054
▁mọc	-10.5063
del	-10.5064
▁Giống	-10.5074
▁Đ	-10.5078
▁cháu	-10.5088
bia	-10.5089
▁Mon	-10.509
▁Bảng	-10.5096
ola	-10.5099
▁1959	-10.5102
▁chinh	-10.5118
ngại	-10.5124
▁Đĩa	-10.5126
15	-10.5128
▁All	-10.5134
yi	-10.514
iella	-10.5156
dis	-10.5156
ent	-10.5158
vũ	-10.5162
▁1929	-10.517
loạt	-10.5171
▁Les	-10.5171
▁Her	-10.5186
▁Bùi	-10.5189
Vi	-10.519
▁Pic	-10.5191
chảy	-10.5205
net	-10.5221
iz	-10.5228
hải	-10.5239
▁Chân	-10.5242
▁Mu	-10.5255
▁xuân	-10.5257
▁mộ	-10.5259
▁Loire	-10.5261
ö	-10.5269
Tĩnh	-10.5274
trực	-10.5274
pan	-10.5281
lon	-10.5285
Tre	-10.5287
▁Quý	-10.5292
▁kém	-10.5297
▁kho	-10.5297
thập	-10.5302
▁1934	-10.5304
Thần	-10.5325
▁hiếm	-10.5332
▁lọt	-10.5333
▁lỗ	-10.5339
▁Argentina	-10.5346
▁Scotland	-10.5355
▁Ấu	-10.5357
khoản	-10.5363
▁Truyền	-10.5364
ans	-10.5366
▁Che	-10.537
▁Mark	-10.537
▁Mac	-10.5371
▁lan	-10.5372
▁cụm	-10.5373
dã	-10.5379
▁Ju	-10.5384
Se	-10.5385
▁khổng	-10.5385
▁Lam	-10.5385
▁51	-10.5385
▁Nước	-10.5387
mu	-10.5389
phú	-10.5391
▁1935	-10.5392
dùng	-10.5398
▁Báo	-10.54
Ro	-10.5405
▁Tokyo	-10.5407
nis	-10.5408
▁dinh	-10.541
▁*	-10.5411
▁Ohio	-10.5419
▁Internet	-10.5422
▁Neuroptera	-10.5433
▁1957	-10.5439
Le	-10.5446
eo	-10.5448
▁Thần	-10.5451
lằn	-10.5452
▁Sách	-10.5453
pus	-10.5453
▁Quyết	-10.5455
chiếm	-10.5462
▁Ireland	-10.5467
▁nhắc	-10.5469
▁Cửu	-10.5479
▁kia	-10.548
▁lạnh	-10.5482
▁Australia	-10.5487
▁chở	-10.5492
quang	-10.55
▁xấu	-10.55
▁Tin	-10.5509
▁Sha	-10.551
▁chụp	-10.5511
Phòng	-10.5516
ap	-10.5524
▁Super	-10.5525
▁tháo	-10.5525
xi	-10.5532
▁Pha	-10.5533
▁Huy	-10.554
ab	-10.5541
Tự	-10.5547
▁bọn	-10.5558
biết	-10.556
oc	-10.556
bro	-10.5564
▁1914	-10.5573
▁Chiều	-10.5576
▁Hướng	-10.5576
tròn	-10.5577
song	-10.5579
▁Cuba	-10.5586
▁Âm	-10.5587
▁cam	-10.5592
ó	-10.5593
▁thuyết	-10.5594
▁uy	-10.5599
▁chư	-10.5599
Thắng	-10.5599
sơ	-10.5602
ist	-10.5604
lang	-10.561
▁hang	-10.5615
tô	-10.5616
Xương	-10.5617
▁Tai	-10.5618
▁49	-10.5619
ifera	-10.5622
hàm	-10.5637
▁42	-10.5643
▁tân	-10.565
Lý	-10.5666
▁thả	-10.5666
Li	-10.567
Hồ	-10.5671
▁trông	-10.5676
mình	-10.5679
▁It	-10.5685
ơ	-10.5691
▁chuyện	-10.5691
▁tung	-10.5696
age	-10.5699
▁Iowa	-10.5708
▁Joseph	-10.5716
rum	-10.572
▁tr	-10.5728
▁cú	-10.5731
▁1891	-10.5732
▁phạt	-10.5733
nu	-10.574
▁Hu	-10.5744
yu	-10.5745
▁Phái	-10.575
▁Trưởng	-10.5751
gar	-10.5754
Mo	-10.5756
Vinh	-10.5756
Airlines	-10.5766
▁file	-10.5769
▁b	-10.5776
▁Tàu	-10.5785
▁Friedrich	-10.5794
▁Mc	-10.5797
lı	-10.5798
▁hỏa	-10.58
▁1900	-10.5817
đẹp	-10.5822
khoảng	-10.5826
▁anime	-10.5827
ou	-10.5827
▁Vol	-10.583
▁1953	-10.5833
▁1951	-10.5851
zu	-10.5857
▁Men	-10.5857
▁1949	-10.5857
▁che	-10.5863
▁Lãnh	-10.5865
▁Bệnh	-10.5879
▁Los	-10.5882
▁xám	-10.5885
▁1931	-10.5886
▁Trọng	-10.5891
▁mệnh	-10.5892
ngoại	-10.5893
Dakota	-10.5894
đêm	-10.5895
▁le	-10.5903
▁Bá	-10.5904
▁Cải	-10.5905
▁thảo	-10.5906
▁dâng	-10.5911
▁55	-10.5922
Quân	-10.5923
nhiễm	-10.5925
▁Tứ	-10.5929
▁Lạc	-10.5931
bus	-10.5937
▁44	-10.5942
▁Lao	-10.5952
ep	-10.5961
▁muối	-10.5969
▁mèo	-10.5977
▁Shi	-10.5978
▁Mont	-10.5981
đức	-10.5982
liền	-10.5982
▁Carl	-10.5983
ngày	-10.5983
ach	-10.5988
▁Q	-10.599
lao	-10.5991
kỉ	-10.5994
▁Ana	-10.5997
ngợi	-10.5998
▁Động	-10.6007
▁đua	-10.6008
▁Hoài	-10.6014
▁cự	-10.6015
ang	-10.6016
▁1948	-10.6017
▁|	-10.6023
ez	-10.6025
▁des	-10.6026
▁hiến	-10.6028
▁top	-10.6034
▁Chung	-10.6038
Phước	-10.6041
ye	-10.6041
tur	-10.6045
Ta	-10.6046
orum	-10.6051
▁thuê	-10.6052
băng	-10.6061
▁lái	-10.6067
▁website	-10.6069
▁1913	-10.6071
á	-10.6072
ys	-10.6079
▁Au	-10.6085
đây	-10.6086
▁Billboard	-10.6092
pes	-10.6095
▁Linh	-10.6099
▁tuyển	-10.61
▁1912	-10.6103
▁hôn	-10.6103
▁Alpes	-10.6103
▁đón	-10.6103
field	-10.6111
▁Sải	-10.6112
Lạc	-10.6117
ah	-10.6131
▁Tướng	-10.6135
Lợi	-10.6136
trại	-10.6136
cia	-10.6139
Ko	-10.6145
ns	-10.6165
bal	-10.618
wood	-10.6187
▁Kể	-10.619
▁tựa	-10.619
Nghĩa	-10.6194
11	-10.6199
▁Tiếp	-10.6206
▁thép	-10.6207
▁Định	-10.6208
tar	-10.622
quyển	-10.6232
ling	-10.6236
Môn	-10.6244
ben	-10.6245
mia	-10.6246
cu	-10.6247
▁as	-10.6252
▁Thi	-10.6256
line	-10.6257
▁xong	-10.6258
▁Hot	-10.6265
ary	-10.6265
▁Sal	-10.627
De	-10.6273
giúp	-10.6287
▁Mô	-10.6296
▁On	-10.6297
▁Pu	-10.6302
▁trầm	-10.6304
tre	-10.631
▁Com	-10.6316
▁Gu	-10.6318
▁Santa	-10.6327
hỏa	-10.6329
eng	-10.6335
he	-10.6343
lus	-10.6355
▁tần	-10.6358
trở	-10.6359
▁thằn	-10.6376
▁nhấn	-10.6381
▁Ben	-10.6389
biên	-10.6399
thải	-10.6399
dị	-10.64
▁Phù	-10.6404
tic	-10.641
ud	-10.6418
▁64	-10.6419
▁Cà	-10.6426
▁Cy	-10.644
▁lúa	-10.6441
hồn	-10.6444
▁co	-10.6453
nd	-10.6453
▁canh	-10.646
dan	-10.6461
berg	-10.6463
▁Bị	-10.647
▁1952	-10.6474
▁rau	-10.6477
▁75	-10.6478
▁than	-10.6479
kia	-10.6479
▁Google	-10.648
12	-10.648
▁1908	-10.6484
▁39	-10.6486
Nẵng	-10.649
▁Edward	-10.6491
lẻ	-10.6504
▁1922	-10.6525
▁Gra	-10.6526
urus	-10.6527
▁ghế	-10.6534
▁Berlin	-10.6535
▁Chú	-10.6536
▁hề	-10.6538
▁species	-10.6538
▁Star	-10.6542
▁Thập	-10.6544
Mai	-10.6551
▁nét	-10.6552
▁Har	-10.6556
ánh	-10.6568
▁khung	-10.6573
▁1932	-10.658
▁Nhất	-10.6581
phó	-10.6582
▁sợi	-10.6587
illa	-10.6589
▁Tề	-10.6598
tiền	-10.6598
bắt	-10.6602
▁khoản	-10.6604
Thạnh	-10.6616
Bá	-10.6617
▁Giai	-10.662
▁ưa	-10.6629
ini	-10.6635
▁Fo	-10.6638
▁1933	-10.6654
bre	-10.666
▁1911	-10.6665
▁Ke	-10.6677
▁thợ	-10.6685
▁IGN	-10.6691
▁Art	-10.6692
▁kính	-10.6694
Trọng	-10.6698
Quan	-10.6703
Ho	-10.6704
ốc	-10.6708
▁Vân	-10.6709
Ra	-10.6714
gra	-10.6717
đi	-10.6718
▁Cói	-10.6726
▁niềm	-10.6727
▁bạo	-10.6728
bè	-10.6733
ức	-10.6736
▁Kon	-10.6736
▁per	-10.6737
▁1916	-10.674
low	-10.6741
▁phỏng	-10.6752
▁tiềm	-10.6764
▁1925	-10.6764
▁mấy	-10.6782
ell	-10.6786
mann	-10.6789
▁chợ	-10.6791
Trăng	-10.6803
▁quang	-10.6814
▁chờ	-10.6814
▁Xa	-10.6817
▁Karl	-10.6821
und	-10.6834
▁Park	-10.6839
▁tim	-10.684
▁Ngũ	-10.6848
ish	-10.685
icola	-10.6859
thừa	-10.6866
▁1905	-10.687
hiến	-10.6871
19	-10.6874
▁Kara	-10.6874
hoan	-10.6876
ss	-10.6878
ianus	-10.6881
▁46	-10.6882
▁Black	-10.6883
rô	-10.6884
Tấn	-10.6884
▁1924	-10.6885
▁Apidae	-10.6885
▁150	-10.6886
▁Cây	-10.6887
▁1918	-10.6893
▁×	-10.6893
▁41	-10.6902
▁hiển	-10.6904
▁Frank	-10.6911
▁Mexico	-10.6915
▁Mao	-10.6921
▁axit	-10.6929
▁nô	-10.6938
▁điển	-10.6943
▁ếch	-10.6943
▁lật	-10.6943
▁Ac	-10.6944
▁Siêu	-10.6947
mal	-10.6954
▁viêm	-10.6956
▁xoay	-10.6965
▁Salticidae	-10.697
▁nghìn	-10.6975
nề	-10.6976
▁978	-10.6988
duyệt	-10.6994
thiệp	-10.6994
▁1917	-10.6997
ua	-10.6999
▁Wales	-10.7004
à	-10.7008
▁nấm	-10.7013
▁Thừa	-10.7015
xưa	-10.7016
▁Pas	-10.7022
▁Syria	-10.7022
▁thạch	-10.7022
▁Manchester	-10.7025
▁vết	-10.7026
▁pro	-10.7033
,	-10.7033
▁1910	-10.7037
lớp	-10.704
▁thụ	-10.7043
▁lắp	-10.7043
▁kịp	-10.7044
ft	-10.7047
nhà	-10.7049
▁Fu	-10.705
▁Vệ	-10.7052
ste	-10.7052
hơi	-10.7063
▁sạch	-10.7073
ä	-10.7073
Tạng	-10.708
tai	-10.7083
well	-10.7093
Go	-10.7094
▁Tô	-10.7096
▁sơn	-10.7099
▁Ex	-10.71
▁dao	-10.7103
▁nhì	-10.7106
16	-10.7111
▁bấy	-10.7112
▁vững	-10.7113
▁cỡ	-10.7113
Ha	-10.7134
lá	-10.7136
▁tứ	-10.7146
▁khuyên	-10.7149
mis	-10.7151
▁Hùng	-10.7155
ski	-10.7157
▁06	-10.7159
▁Colombia	-10.7164
Biên	-10.7167
dal	-10.717
▁nàng	-10.7173
qu	-10.7178
▁Oxford	-10.7181
▁chuột	-10.7183
mat	-10.7191
▁Kansas	-10.7195
▁cường	-10.7206
od	-10.7207
dáng	-10.7207
▁xét	-10.7209
▁dường	-10.7211
rã	-10.7212
▁Ab	-10.7229
▁commune	-10.7231
▁đẻ	-10.7234
▁vinh	-10.7237
Lăng	-10.7239
▁For	-10.7241
dạy	-10.7242
ré	-10.7252
mes	-10.7254
hu	-10.7259
▁1906	-10.7263
bel	-10.7265
▁Phường	-10.7266
▁Kan	-10.7268
▁thánh	-10.7271
▁vẻ	-10.7276
sai	-10.7282
▁Ak	-10.7287
▁Hàm	-10.7289
pen	-10.7289
ney	-10.7292
oi	-10.7293
▁53	-10.7299
▁Quá	-10.7304
▁02	-10.7312
Hương	-10.732
nan	-10.732
din	-10.7335
▁trừ	-10.7341
▁Tour	-10.7345
▁sụp	-10.735
▁1927	-10.7361
San	-10.7367
▁đỗ	-10.7368
▁pop	-10.737
mã	-10.738
▁sườn	-10.7396
Duy	-10.7397
▁non	-10.74
▁thuần	-10.74
▁Mor	-10.7401
▁UEFA	-10.7401
▁Iraq	-10.7403
▁lai	-10.7406
▁xưa	-10.7407
ani	-10.7416
ale	-10.7421
yan	-10.7431
▁43	-10.7432
▁già	-10.7437
có	-10.7442
▁miệng	-10.7446
họ	-10.7451
▁chặn	-10.7452
Thu	-10.7458
dar	-10.7459
bon	-10.746
ẩm	-10.7462
▁chuồn	-10.7463
pro	-10.7468
▁cốt	-10.7483
▁1923	-10.7484
▁xưng	-10.7494
▁Giới	-10.7495
▁1928	-10.7495
▁Smith	-10.7496
▁lồng	-10.7498
▁Th	-10.7499
▁gen	-10.7513
▁Loại	-10.753
▁đập	-10.7532
ford	-10.7533
▁1919	-10.7541
▁Han	-10.7553
▁đàm	-10.7553
▁ruột	-10.7558
▁nghị	-10.7566
▁yên	-10.7568
▁chôn	-10.757
mp	-10.7571
pp	-10.7577
sy	-10.758
200	-10.7589
▁Chùa	-10.7594
dâm	-10.76
▁ủy	-10.7602
▁Trà	-10.7604
wan	-10.7606
dra	-10.7618
mel	-10.7627
▁54	-10.7628
▁#	-10.7628
▁guitar	-10.763
ves	-10.7631
▁Football	-10.7634
▁Sang	-10.7639
suốt	-10.7639
▁Hạng	-10.7648
▁dải	-10.7648
▁1909	-10.765
▁Hợp	-10.7661
▁Hiệu	-10.7668
▁cất	-10.7672
las	-10.7677
Bang	-10.7678
tháp	-10.7684
pin	-10.7684
▁03	-10.769
Khê	-10.7692
dần	-10.77
Chúa	-10.7715
Lo	-10.7718
los	-10.7722
▁tia	-10.773
Đồng	-10.7734
Sinh	-10.7737
▁thung	-10.7748
way	-10.7749
▁08	-10.7759
▁Huệ	-10.7763
▁Tăng	-10.7764
▁cúp	-10.7769
▁hủy	-10.7775
▁hộp	-10.778
▁HMS	-10.7783
Chiêu	-10.7796
and	-10.7805
▁400	-10.7811
Sm	-10.7817
ting	-10.7822
▁phu	-10.7829
bạc	-10.7831
▁ranh	-10.7845
chú	-10.7853
▁Haute	-10.7857
▁Bur	-10.7857
▁hạc	-10.7858
Trinh	-10.786
▁South	-10.7863
ấu	-10.7865
▁nấu	-10.7876
▁Mẹ	-10.7882
▁chấn	-10.7886
▁pp	-10.7887
ianum	-10.7888
▁trạng	-10.7888
thọ	-10.7891
▁bùng	-10.7891
▁ung	-10.7892
▁Shin	-10.7899
lầm	-10.79
ı	-10.7903
rie	-10.7909
▁Mal	-10.7912
▁huyền	-10.7916
▁Bến	-10.7916
▁Dryopteridaceae	-10.7924
▁Khang	-10.7926
▁der	-10.793
▁România	-10.7932
gỡ	-10.7932
osum	-10.7932
▁Epi	-10.7932
▁Dòng	-10.7932
ngành	-10.7952
ich	-10.7954
▁ki	-10.7956
Bảo	-10.7957
phạt	-10.7957
ú	-10.7957
▁suối	-10.7961
mor	-10.7966
ngự	-10.7968
▁trinh	-10.7969
▁1915	-10.7969
▁Dịch	-10.7976
ray	-10.7976
▁lửa	-10.7976
▁viễn	-10.7978
kar	-10.798
▁Astragalus	-10.7981
▁Hưng	-10.7982
▁ấp	-10.7983
▁05	-10.7984
▁sắt	-10.7984
▁Hơn	-10.7985
giống	-10.7987
▁hưu	-10.7994
▁gián	-10.7997
▁Euphorbia	-10.8004
▁nhớ	-10.8006
▁nhị	-10.801
dỡ	-10.8011
▁Ber	-10.802
▁protein	-10.8021
ç	-10.8028
▁Dung	-10.8029
▁Sp	-10.8031
Điền	-10.8035
▁1895	-10.8035
▁bối	-10.804
▁site	-10.805
▁04	-10.8052
▁Hawaii	-10.8052
cự	-10.8059
đựng	-10.8062
▁Ruồi	-10.807
Chương	-10.8074
ophora	-10.8081
Trạch	-10.8083
▁hâm	-10.8085
▁Polypodiaceae	-10.8088
pal	-10.8089
▁Cambridge	-10.8089
ova	-10.8092
dens	-10.8092
Ar	-10.8099
▁Ad	-10.8103
▁Ci	-10.8109
ett	-10.8113
▁09	-10.8127
▁thẻ	-10.8134
▁Cal	-10.8137
▁tông	-10.8142
sin	-10.8143
▁International	-10.8146
chân	-10.8151
▁khôi	-10.8157
thuẫn	-10.8162
21	-10.8165
▁Poly	-10.8166
inus	-10.8178
▁Sản	-10.8184
cầm	-10.8186
▁khen	-10.8197
tham	-10.8208
▁Tùy	-10.8217
▁Đệ	-10.8232
nhuận	-10.8238
▁cổng	-10.8241
▁Moskva	-10.8243
Thơ	-10.8244
ate	-10.8246
up	-10.8248
khứ	-10.8261
▁Müll	-10.8275
mê	-10.8303
tim	-10.8305
uri	-10.8319
tt	-10.8319
▁Bayern	-10.8322
Guinea	-10.8326
thăng	-10.8331
lea	-10.8332
▁Linyphiidae	-10.8336
▁Trấn	-10.8337
nói	-10.8339
đ	-10.8341
tter	-10.8344
sạn	-10.835
her	-10.835
▁bột	-10.8354
▁07	-10.8357
▁trích	-10.836
▁59,5	-10.8362
ulus	-10.8364
▁Huyền	-10.8375
New	-10.8381
thật	-10.8382
Ga	-10.8383
bậc	-10.8384
tel	-10.8389
▁Microsoft	-10.8391
▁Hữu	-10.8391
▁đèn	-10.8401
▁Biên	-10.8402
hồng	-10.8404
burg	-10.8405
▁Điểm	-10.842
phu	-10.8424
▁72	-10.8424
▁gai	-10.8428
rat	-10.8428
▁Hoạt	-10.8432
▁TV	-10.8433
▁Quách	-10.8436
▁rock	-10.8443
▁Pakistan	-10.8443
bin	-10.8444
▁Roma	-10.8446
▁1926	-10.8457
▁Peru	-10.8459
▁phiếu	-10.846
▁120	-10.8472
giận	-10.8476
▁thám	-10.8477
Co	-10.8478
ifolium	-10.8479
dai	-10.848
▁Ngôi	-10.8484
Liên	-10.8494
▁hẹp	-10.8496
▁Ze	-10.8496
bur	-10.8496
▁TP	-10.8498
▁Vịnh	-10.8505
Bí	-10.8507
fu	-10.8509
ō	-10.8513
ép	-10.8533
phê	-10.8538
▁Bor	-10.8541
▁sưu	-10.8544
tta	-10.8546
š	-10.8553
Cảnh	-10.8555
sợ	-10.8566
▁May	-10.8576
▁King	-10.8579
▁Chile	-10.8584
odon	-10.8587
▁Un	-10.8587
đáo	-10.8589
▁chàng	-10.8595
Phủ	-10.8598
▁trâu	-10.8601
rina	-10.8601
▁Trình	-10.8602
bor	-10.8602
▁Fe	-10.8603
Dung	-10.8606
đảm	-10.8606
▁phế	-10.8607
▁Website	-10.8611
▁1921	-10.8614
thăm	-10.8626
köy	-10.8627
▁xóa	-10.8634
lla	-10.864
ari	-10.8641
cor	-10.8644
▁Benth	-10.8647
▁Va	-10.8647
Cực	-10.865
nghĩ	-10.8652
▁Đơn	-10.8655
gel	-10.8657
eb	-10.8672
ant	-10.8674
▁Brazil	-10.8685
▁Gar	-10.8687
rối	-10.869
soạn	-10.8699
▁Tuần	-10.8702
▁Cer	-10.8705
▁Mộc	-10.8707
ạ	-10.871
▁đuổi	-10.871
chạy	-10.8717
▁căng	-10.8718
eum	-10.8719
ob	-10.872
met	-10.8721
ier	-10.8725
war	-10.8726
▁Wa	-10.8741
18	-10.8746
▁Ce	-10.8746
▁lò	-10.8747
▁Cụm	-10.8754
vẻ	-10.8757
▁Nobel	-10.8758
▁Bra	-10.8763
▁Dan	-10.8763
▁Wisconsin	-10.8767
▁ngập	-10.8768
▁đòn	-10.8768
▁bọc	-10.8769
gue	-10.8772
vợt	-10.8773
chinh	-10.8774
ala	-10.8785
nov	-10.8788
mãn	-10.8788
▁Vận	-10.8794
Hi	-10.8798
▁củng	-10.8798
ş	-10.88
▁Hung	-10.8802
▁Os	-10.8803
▁Diên	-10.8809
mai	-10.881
▁Seine	-10.8815
Chấp	-10.8815
▁Đền	-10.8818
▁Harry	-10.8824
ona	-10.8827
anum	-10.8839
táng	-10.884
gh	-10.8842
zan	-10.8844
Chiến	-10.8844
antha	-10.8849
ow	-10.8859
▁kĩ	-10.8862
vis	-10.8864
iformis	-10.8866
▁Missouri	-10.8868
▁Sta	-10.8872
hara	-10.8872
Giáo	-10.8877
ora	-10.8877
▁giây	-10.8879
17	-10.8881
No	-10.8883
▁Seoul	-10.8888
▁lân	-10.8889
sar	-10.8894
phúc	-10.8894
▁ngã	-10.8896
Mau	-10.89
Hội	-10.8912
▁Il	-10.8916
▁Col	-10.8916
quát	-10.8917
Cơ	-10.8918
yama	-10.8947
▁Tipula	-10.895
Po	-10.8951
20	-10.8953
▁Olympic	-10.8972
▁chuông	-10.8974
▁Bố	-10.8979
ite	-10.8981
bert	-10.8993
▁Ve	-10.8993
▁1907	-10.8999
▁nêu	-10.9
▁1903	-10.9009
hiểu	-10.9009
▁Des	-10.9018
▁Onthophagus	-10.902
▁Mary	-10.9025
▁Bay	-10.903
tật	-10.9034
▁gạo	-10.9036
chồng	-10.9036
ure	-10.904
▁Inter	-10.9043
▁Chợ	-10.9047
▁sừng	-10.9049
▁vé	-10.905
mont	-10.9051
▁1898	-10.9052
lip	-10.9056
▁giỏi	-10.9058
▁tóc	-10.9065
▁Pra	-10.9071
▁Megachile	-10.9073
▁mìn	-10.9074
let	-10.9078
▁Nho	-10.9079
ichi	-10.9081
Si	-10.9084
▁chạm	-10.9087
▁58	-10.9087
ator	-10.909
bri	-10.909
ai	-10.9091
icum	-10.9092
ğ	-10.9093
trồng	-10.9093
linh	-10.9096
ấn	-10.9099
ngược	-10.9104
▁dê	-10.9105
thượng	-10.911
port	-10.911
num	-10.9112
ira	-10.9112
▁Jackson	-10.9116
▁Est	-10.912
▁Arkansas	-10.9123
▁Duy	-10.9124
ple	-10.9129
gui	-10.913
▁đâu	-10.9132
▁hẳn	-10.9137
quỳ	-10.9139
ioides	-10.9144
Quý	-10.9151
onia	-10.9156
▁Daniel	-10.9157
▁Thuật	-10.9162
quen	-10.9168
▁Mật	-10.9169
▁Ph	-10.9176
▁xuyên	-10.9178
▁56	-10.9182
▁bồi	-10.919
▁thôi	-10.9191
dus	-10.9192
Quyền	-10.9192
Angeles	-10.9194
▁Green	-10.9195
▁treo	-10.9197
Kiều	-10.9198
▁Giả	-10.9198
gus	-10.9205
▁Núi	-10.9208
▁Phước	-10.9208
30	-10.9209
súc	-10.9209
ao	-10.9212
▁dẹp	-10.9217
▁00	-10.922
▁Je	-10.9224
rd	-10.9231
rtallen	-10.9236
▁Bel	-10.9244
Lu	-10.9245
par	-10.9245
▁Inwon	-10.9246
▁Rob	-10.9249
mới	-10.9252
▁org	-10.9253
▁57	-10.9258
org	-10.9262
▁Vạn	-10.9276
World	-10.9276
▁Wi	-10.9279
▁hứa	-10.9284
▁thỉnh	-10.9288
▁Alexander	-10.9298
▁Vật	-10.93
ax	-10.9304
zer	-10.9308
▁1897	-10.9324
Thi	-10.9327
cất	-10.9329
ón	-10.9332
и	-10.9334
▁Kar	-10.9335
▁sàn	-10.9337
▁đậm	-10.9337
túc	-10.9339
▁Hitler	-10.934
sus	-10.9342
▁Tường	-10.9351
▁Syn	-10.936
▁Tả	-10.9363
thy	-10.9366
▁Venezuela	-10.9367
voi	-10.9368
▁FIFA	-10.9369
▁khoáng	-10.9374
nor	-10.9379
▁mảng	-10.9383
My	-10.9391
▁mây	-10.9391
ơn	-10.9392
▁Tỷ	-10.9392
▁bền	-10.9401
One	-10.9402
▁đáy	-10.9403
▁1904	-10.9404
14	-10.9406
win	-10.9408
▁Schltr	-10.9419
▁Cỏ	-10.942
▁bia	-10.9431
Nai	-10.9435
▁Nu	-10.944
▁DVD	-10.9447
▁1899	-10.945
Be	-10.945
▁Hook	-10.9451
Trường	-10.9451
▁Baker	-10.9453
▁Xuất	-10.9456
andra	-10.946
▁Nhờ	-10.9461
▁Làng	-10.9461
▁Real	-10.9464
vel	-10.9465
▁Phục	-10.9466
24	-10.9467
▁Tr	-10.9471
ins	-10.9475
ranh	-10.9479
▁manga	-10.9484
▁ẩn	-10.9489
▁lăng	-10.9489
Ch	-10.9491
In	-10.9497
▁Gen	-10.9504
▁cống	-10.9506
uống	-10.9509
▁Pierre	-10.9509
điệp	-10.9515
át	-10.9519
▁tươi	-10.9527
tion	-10.9528
▁Bal	-10.953
ff	-10.9533
ellus	-10.9534
▁phun	-10.9536
chẽ	-10.9537
tsu	-10.9538
ric	-10.9545
▁mùi	-10.9546
▁dị	-10.9551
48	-10.9552
sti	-10.956
Giám	-10.9563
▁Ecuador	-10.9566
hôi	-10.9568
▁Ken	-10.957
▁Michigan	-10.957
▁chữa	-10.9572
▁kiên	-10.9579
Đốc	-10.9583
▁Lỗ	-10.9583
trần	-10.9591
▁1896	-10.9595
▁xưởng	-10.9607
▁Quả	-10.9608
▁Macro	-10.9609
Entertainment	-10.9613
nica	-10.9621
▁1902	-10.964
▁bơi	-10.9644
mas	-10.9649
tỏa	-10.9651
▁Bất	-10.9652
▁Ur	-10.9653
các	-10.9653
tii	-10.9655
br	-10.9655
out	-10.9665
▁thai	-10.9665
▁bây	-10.9671
uni	-10.9671
▁ngủ	-10.9676
Xá	-10.9677
▁cương	-10.9677
▁Vinh	-10.9678
▁mỏng	-10.9678
▁Pat	-10.9678
▁Ghi	-10.9683
▁UK	-10.9685
▁Pháo	-10.9687
Diego	-10.9689
▁Kho	-10.9693
▁Mega	-10.9701
▁virus	-10.9702
▁Thục	-10.9706
vang	-10.9707
hào	-10.9708
stra	-10.9718
cản	-10.9719
▁màng	-10.9719
▁th	-10.9721
ef	-10.9726
▁mơ	-10.9726
Vĩnh	-10.9731
▁Khmer	-10.9739
č	-10.974
ted	-10.9742
с	-10.9744
cle	-10.9748
ụ	-10.9748
▁Ran	-10.9748
chút	-10.9749
đông	-10.9757
mit	-10.9762
▁Lincoln	-10.9764
nội	-10.9764
▁Jack	-10.9767
▁Bách	-10.977
▁tuân	-10.9774
▁Tricho	-10.9778
quý	-10.9783
ori	-10.9787
▁Lã	-10.9792
▁diệt	-10.9792
Nghi	-10.9794
ces	-10.9808
▁Zo	-10.9811
cá	-10.9816
▁hằng	-10.9816
▁chục	-10.9825
▁nhịp	-10.983
bụi	-10.9835
chu	-10.9836
▁Tor	-10.9838
ice	-10.9842
ire	-10.985
tù	-10.9856
▁Bóng	-10.9857
▁Jan	-10.9862
thai	-10.9867
▁Diện	-10.9871
anensis	-10.988
Car	-10.9883
▁Tuổi	-10.9893
bat	-10.9893
▁tròn	-10.9897
▁1000	-10.9899
zon	-10.9899
set	-10.9901
▁Binh	-10.9904
đen	-10.9905
▁đứt	-10.9906
ư	-10.9913
jan	-10.9915
ias	-10.992
▁Bulgaria	-10.9932
ity	-10.9934
▁Fi	-10.9937
▁She	-10.9939
▁Anna	-10.9944
▁Halictidae	-10.9957
▁Florida	-10.9971
▁nhắm	-10.9971
ology	-10.998
▁nhầm	-10.9984
cul	-10.9984
dư	-10.9987
▁1894	-10.9991
ele	-10.9993
▁Sáng	-10.9995
dội	-10.9996
▁cưới	-11.0003
▁quen	-11.0007
Viên	-11.0007
▁Chế	-11.0015
lim	-11.0016
▁Kitô	-11.0016
▁Tầm	-11.0021
xá	-11.0022
ies	-11.0024
▁Sen	-11.0024
đợi	-11.0026
▁Thay	-11.0027
▁Monte	-11.004
▁nhãn	-11.0043
▁Rio	-11.0044
▁Albert	-11.0059
▁Sri	-11.0061
▁Min	-11.0062
Lạt	-11.0066
▁bạch	-11.0071
nghề	-11.0072
▁Mộ	-11.0079
▁Carex	-11.0081
Times	-11.0083
pra	-11.0083
cương	-11.0084
▁Ter	-11.0084
Tú	-11.0086
bol	-11.0086
▁gợi	-11.0087
▁nút	-11.009
anti	-11.0093
ue	-11.01
Ki	-11.0102
▁Sir	-11.0107
▁Cử	-11.0113
▁ngực	-11.0113
log	-11.0119
ada	-11.0121
ding	-11.0128
ky	-11.013
phyllum	-11.0131
▁Yo	-11.0135
▁Lời	-11.0136
▁dịp	-11.0151
▁Max	-11.0151
▁Walter	-11.0158
var	-11.0163
Hành	-11.0164
▁Ali	-11.0168
▁Centre	-11.0169
▁Op	-11.0173
▁1901	-11.0177
▁radar	-11.0193
ges	-11.0195
▁Căn	-11.02
iae	-11.0207
sei	-11.0207
esia	-11.0209
▁lưỡng	-11.0211
phẳng	-11.0212
▁Viễn	-11.0213
Cha	-11.0218
▁ho	-11.022
▁Acacia	-11.0222
▁Cấp	-11.0224
cối	-11.0224
mệnh	-11.0226
▁Liêu	-11.023
▁Megachilidae	-11.0232
cra	-11.0234
Thịnh	-11.0235
pil	-11.0243
cher	-11.0243
▁mượn	-11.0247
chạm	-11.0248
▁Cre	-11.025
ides	-11.025
▁Australasia	-11.0256
▁Armenia	-11.0256
rea	-11.0257
▁Euro	-11.0258
▁Tan	-11.0261
▁MiG	-11.0264
Nhơn	-11.0279
▁Đình	-11.0281
Gu	-11.0284
▁Độc	-11.0285
lũy	-11.0289
are	-11.0293
Thiện	-11.0297
▁Hay	-11.0297
lâu	-11.0299
tal	-11.0307
▁Cher	-11.0309
og	-11.0318
aris	-11.0323
▁85	-11.0325
▁đức	-11.0329
▁Đôi	-11.033
▁bốc	-11.0335
▁Mua	-11.0337
▁Kỷ	-11.0341
▁CP	-11.0341
▁Serbia	-11.0344
▁Life	-11.0357
năm	-11.036
▁ấm	-11.0362
▁FA	-11.0371
▁Chelsea	-11.0371
▁thỏ	-11.0372
ks	-11.0376
▁Afghanistan	-11.0378
pia	-11.0379
Đài	-11.038
Ti	-11.0382
▁BBC	-11.0384
▁Lần	-11.0387
▁hầm	-11.039
gin	-11.0391
▁Italia	-11.04
sis	-11.0401
▁Ste	-11.0407
▁bút	-11.041
yn	-11.0417
Cường	-11.0419
eli	-11.0421
▁series	-11.0422
▁ruộng	-11.043
ophila	-11.0436
▁Lepto	-11.044
▁am	-11.044
ui	-11.0448
▁Khai	-11.0453
▁59	-11.0453
ring	-11.0457
Bi	-11.046
hưng	-11.0462
town	-11.0465
lãm	-11.0466
▁Game	-11.0468
ene	-11.0471
dd	-11.0473
▁Christian	-11.0475
▁bến	-11.0477
To	-11.0487
icollis	-11.0491
▁Nord	-11.0503
▁Sm	-11.0507
tho	-11.0508
Con	-11.0515
▁Rhône	-11.0516
Tín	-11.0521
air	-11.0522
eta	-11.0524
▁Lang	-11.0533
pis	-11.0536
kai	-11.0537
▁Lâu	-11.0538
▁dư	-11.0545
end	-11.0547
hor	-11.0548
hal	-11.0553
lei	-11.0556
cạnh	-11.0559
hoại	-11.0561
▁Psychotria	-11.0565
▁chào	-11.0569
▁rối	-11.0571
hat	-11.0573
▁95	-11.0573
▁Pol	-11.0582
bis	-11.0584
nữa	-11.0587
ik	-11.0588
bắn	-11.0592
▁Elizabeth	-11.0594
▁leo	-11.0599
ipes	-11.06
▁Premier	-11.0601
tana	-11.0604
đạp	-11.0614
Carolina	-11.0615
chuyền	-11.0617
▁Sar	-11.0617
mì	-11.0618
hr	-11.0618
Tích	-11.0622
ipennis	-11.0623
aea	-11.0627
mang	-11.0627
▁lang	-11.0631
▁Araneus	-11.0632
▁Mad	-11.0637
rio	-11.0639
▁Ara	-11.064
▁1889	-11.0643
Hậu	-11.0646
đua	-11.0649
▁Dar	-11.0654
▁Madrid	-11.0658
▁lạ	-11.0663
rei	-11.0672
▁Kiểu	-11.0673
▁kín	-11.0675
▁đâm	-11.0677
fo	-11.0677
ota	-11.0678
cin	-11.068
▁Disney	-11.0682
xít	-11.0691
▁mãi	-11.0697
stein	-11.0697
olo	-11.0697
▁Chiêu	-11.0698
▁Aquitaine	-11.0699
▁Mường	-11.0705
gal	-11.0712
▁Victoria	-11.0714
tông	-11.0716
tối	-11.0721
▁Mười	-11.0724
Hiến	-11.0724
Su	-11.0726
▁Thiệu	-11.0728
cur	-11.0731
Bar	-11.0731
▁tải	-11.0732
ore	-11.0738
13	-11.0743
▁lãng	-11.0747
▁Măng	-11.0748
▁Cand	-11.075
▁Sun	-11.0753
▁tràn	-11.0762
▁Maritime	-11.0763
▁Cro	-11.0764
cker	-11.0767
▁Khí	-11.0775
Thiệu	-11.0776
▁White	-11.0777
▁thoái	-11.0779
▁nhựa	-11.078
bà	-11.078
Liêu	-11.0785
▁trượt	-11.079
▁Taylor	-11.0792
▁Vo	-11.0794
Kiến	-11.0804
▁huyết	-11.0806
▁eo	-11.0807
dor	-11.0808
▁lô	-11.081
Chánh	-11.0813
nea	-11.0813
hy	-11.0814
▁Chuẩn	-11.0816
Đăng	-11.0816
bach	-11.0816
idium	-11.0817
sal	-11.082
Lập	-11.0822
mòn	-11.0825
▁lặp	-11.0828
▁buồn	-11.083
▁Quyền	-11.0832
▁Ol	-11.0832
▁Đánh	-11.0833
more	-11.0842
▁ngon	-11.0852
mos	-11.0855
▁Eugène	-11.0861
▁Vai	-11.0864
▁Thiền	-11.0864
▁trú	-11.0865
00	-11.0865
▁mâu	-11.0866
pet	-11.0868
âu	-11.0869
▁Bre	-11.0869
▁Xe	-11.0871
Lượng	-11.0877
ướt	-11.088
Viết	-11.088
ive	-11.088
duệ	-11.088
cắt	-11.0882
sel	-11.0888
Tu	-11.0892
▁62	-11.0893
ali	-11.0894
▁cạn	-11.0898
▁Thăng	-11.09
Ánh	-11.0901
▁Đỏ	-11.0906
cis	-11.0915
▁Ottoman	-11.092
cum	-11.0924
sông	-11.0926
▁†	-11.0933
lọc	-11.0934
kém	-11.0939
▁Tuyến	-11.0949
bội	-11.095
▁dốc	-11.0952
▁250	-11.0954
▁Broth	-11.0955
▁mai	-11.0955
▁Ham	-11.0959
mani	-11.0963
of	-11.0964
▁Hemi	-11.0971
dò	-11.0974
▁Big	-11.0975
Tùng	-11.0986
túy	-11.0986
Lư	-11.0988
▁Rock	-11.0988
chốt	-11.0995
thang	-11.0999
▁Tar	-11.1001
ern	-11.1007
art	-11.1016
ill	-11.1024
▁Tưởng	-11.1028
▁lạm	-11.1029
uli	-11.1038
▁Diệp	-11.1039
▁oxy	-11.1041
ami	-11.1041
▁Trò	-11.1042
tang	-11.1046
▁Bill	-11.1048
thú	-11.1059
▁ép	-11.1061
▁Ed	-11.1061
bảng	-11.1064
hn	-11.1068
court	-11.107
Cao	-11.1075
▁Bou	-11.1078
đỏ	-11.108
ngắn	-11.1081
▁Mãn	-11.1083
uma	-11.1085
TV	-11.109
IC	-11.1092
chịu	-11.1093
▁61	-11.1094
cậy	-11.1101
off	-11.1102
▁Mel	-11.1103
Thông	-11.1107
▁thịnh	-11.1108
▁Indiana	-11.1116
▁Rick	-11.1117
▁British	-11.112
av	-11.1125
xướng	-11.1132
pt	-11.1134
23	-11.1135
▁Wilhelm	-11.1137
▁hạnh	-11.1137
▁Huỳnh	-11.1142
▁1890	-11.1143
▁lữ	-11.1146
hel	-11.1148
▁micro	-11.1152
▁Marie	-11.1153
▁Chó	-11.1155
▁Giá	-11.1165
▁Tiết	-11.1167
▁Biến	-11.1168
▁bông	-11.117
▁Land	-11.1172
▁Virginia	-11.1174
tùng	-11.1175
Trí	-11.118
Nhi	-11.1181
riêng	-11.1184
▁Tur	-11.1184
▁Sol	-11.1186
hen	-11.1186
elia	-11.1192
Br	-11.1193
mát	-11.1195
Ân	-11.1195
▁Hãng	-11.1196
đứng	-11.1196
thuyền	-11.1197
sto	-11.1206
▁Thẩm	-11.1206
▁84	-11.1207
quế	-11.1207
▁bữa	-11.1208
Thân	-11.1213
thoát	-11.1223
▁Kha	-11.1224
▁Anti	-11.1225
▁At	-11.1234
▁trật	-11.1235
Sư	-11.1244
▁Char	-11.1245
▁Taka	-11.1246
▁Phùng	-11.1252
vời	-11.1252
hảo	-11.1254
▁tuyết	-11.1254
▁poly	-11.1257
ole	-11.126
usa	-11.126
lit	-11.1265
mb	-11.127
zh	-11.1274
▁triệt	-11.1274
▁Champions	-11.1275
sten	-11.1276
▁não	-11.1276
▁Ser	-11.1276
ile	-11.128
▁76	-11.1284
▁Bởi	-11.1285
Lệ	-11.1289
▁Tạp	-11.1292
▁gương	-11.1293
▁mỹ	-11.1294
▁Vàng	-11.1295
▁var	-11.1295
Gi	-11.1296
▁Thuận	-11.1296
▁Cố	-11.1297
е	-11.1299
mil	-11.1301
▁trưng	-11.1305
▁ảo	-11.1309
Ri	-11.1316
▁1878	-11.1316
▁Ty	-11.1321
IS	-11.1325
▁Ang	-11.1325
▁Profile	-11.133
▁nhiếp	-11.1332
ome	-11.1339
▁ghép	-11.134
History	-11.1344
ide	-11.1346
▁By	-11.1346
ù	-11.1347
chổi	-11.1359
▁vải	-11.136
jin	-11.1362
▁va	-11.1365
▁United	-11.1367
▁Quỹ	-11.137
sor	-11.1371
▁Kiểm	-11.1374
▁thô	-11.1376
▁Ap	-11.1379
rit	-11.138
Bu	-11.1382
▁81	-11.1387
▁Bell	-11.1387
ü	-11.1387
▁Sóc	-11.1388
ence	-11.1392
▁Tim	-11.1399
lẫn	-11.1401
try	-11.1403
▁Nói	-11.1403
zy	-11.1404
mun	-11.1413
ngo	-11.1418
▁điêu	-11.1419
▁Oscar	-11.1424
opus	-11.1426
Trì	-11.1433
▁Platy	-11.1434
▁bê	-11.1439
Tam	-11.1439
▁Ứng	-11.1444
▁Khổng	-11.1451
▁lũ	-11.1453
▁trời	-11.1454
▁UNESCO	-11.1459
tina	-11.1463
och	-11.147
▁Tro	-11.1474
ub	-11.1476
▁Eupithecia	-11.1481
▁Ger	-11.1481
25	-11.1483
▁Quid	-11.1483
è	-11.1486
nie	-11.1487
▁Bốn	-11.1504
▁East	-11.1509
▁Kính	-11.1519
gor	-11.152
▁chiêu	-11.1537
ous	-11.1538
bí	-11.154
▁130	-11.1546
MA	-11.1549
Do	-11.1553
▁Rôma	-11.1554
▁Meta	-11.1559
xưng	-11.1564
tensis	-11.1566
ato	-11.1568
▁Nhận	-11.157
▁1885	-11.1571
Tho	-11.1574
lac	-11.1576
▁Henri	-11.1576
pon	-11.1579
Center	-11.1581
▁Quỳnh	-11.1582
lô	-11.1582
▁Chicago	-11.1582
saki	-11.1584
tos	-11.1587
die	-11.1594
▁Lá	-11.1595
tle	-11.1601
300	-11.1601
▁be	-11.1611
▁Bão	-11.1615
▁Chris	-11.1617
huống	-11.162
▁Arthur	-11.1623
▁É	-11.1625
▁Ten	-11.1627
▁São	-11.1627
cent	-11.1627
▁Xây	-11.1637
dắt	-11.1638
▁Ven	-11.1639
tella	-11.1641
rica	-11.1643
▁vay	-11.1646
sing	-11.1648
ret	-11.1651
▁Bối	-11.1658
▁Bad	-11.1659
▁Pre	-11.1661
mạn	-11.1661
▁Congo	-11.1662
▁Live	-11.1664
▁bớt	-11.1665
▁Will	-11.1666
▁Wang	-11.1667
Ngụy	-11.1676
Vĩ	-11.168
ech	-11.1684
bắc	-11.1684
▁Day	-11.1686
▁Giữa	-11.1689
bạo	-11.169
rẽ	-11.1692
tú	-11.1693
▁Điền	-11.1695
▁Đề	-11.1696
▁Bas	-11.1697
▁Cockerell	-11.1702
đạt	-11.1703
mà	-11.1703
а	-11.1704
▁Tối	-11.1704
▁thơm	-11.1706
▁Gà	-11.1706
▁lườn	-11.1707
▁Ngựa	-11.1709
▁Best	-11.1715
Books	-11.1717
▁Nghi	-11.1718
tte	-11.1718
▁Nơi	-11.1723
ese	-11.1723
nar	-11.1724
▁Royal	-11.1725
uensis	-11.1729
pl	-11.1733
Hợp	-11.1736
nhấm	-11.1737
▁Ag	-11.1742
ốt	-11.1743
▁Pottiaceae	-11.1745
elle	-11.1746
xứng	-11.1746
▁Khối	-11.1752
▁khỉ	-11.1754
▁ôn	-11.1756
inger	-11.1758
thách	-11.1763
▁xúc	-11.1764
▁1859	-11.1766
▁dời	-11.1766
▁Mari	-11.1768
hoàn	-11.1769
aga	-11.177
▁Great	-11.1771
Pi	-11.1772
mur	-11.1779
Hùng	-11.178
gg	-11.1782
▁Đọc	-11.1785
Tế	-11.1787
ngưỡng	-11.179
▁im	-11.1794
kháng	-11.1798
=	-11.1798
para	-11.1803
▁ngẫu	-11.1808
lie	-11.1808
chan	-11.1811
ela	-11.1816
▁Nguyệt	-11.1817
▁nồng	-11.1823
shin	-11.1832
ble	-11.1833
ec	-11.1833
pel	-11.1837
▁‘	-11.1838
▁Dia	-11.1842
lay	-11.1842
▁63	-11.1842
▁Lasioglossum	-11.1843
▁82	-11.1844
lỏng	-11.1845
▁Algérie	-11.1846
Thủ	-11.1847
pre	-11.1849
sửa	-11.1855
▁Miền	-11.1859
trả	-11.1861
▁lão	-11.1862
săn	-11.1864
▁nhạt	-11.1866
una	-11.1869
ống	-11.187
▁túi	-11.1871
▁Ảnh	-11.1871
▁pseudo	-11.1873
▁68	-11.1875
kha	-11.1875
▁longi	-11.1876
oidea	-11.1876
if	-11.1877
Publishing	-11.1878
▁mốc	-11.1879
▁88	-11.1879
Tâm	-11.188
▁was	-11.1888
▁77	-11.1893
por	-11.1896
You	-11.1898
quy	-11.19
chướng	-11.1904
▁Costa	-11.1908
▁Gray	-11.1909
▁Nouvelle	-11.191
▁cài	-11.1911
▁71	-11.1913
nae	-11.1915
▁Bán	-11.1921
for	-11.1923
▁thụy	-11.1923
▁dám	-11.1925
▁600	-11.1929
mir	-11.1932
ovich	-11.1936
né	-11.1938
▁Merr	-11.1939
▁1893	-11.195
▁lừa	-11.1953
▁Hans	-11.1957
vai	-11.1957
▁Đã	-11.1957
rid	-11.1965
mura	-11.1971
poly	-11.1972
red	-11.1973
tea	-11.1973
lương	-11.1974
lạ	-11.1977
Park	-11.1995
Cl	-11.1996
nai	-11.1998
▁trà	-11.2009
mand	-11.2011
▁ngón	-11.2014
tấn	-11.2016
phụ	-11.2017
eh	-11.202
aki	-11.202
oni	-11.2023
VI	-11.2024
▁Đời	-11.203
fur	-11.2031
▁chém	-11.2033
cre	-11.2034
▁Khác	-11.2034
▁Milan	-11.2035
ise	-11.2045
▁66	-11.2048
form	-11.2049
▁Asplenium	-11.2051
ama	-11.2051
eg	-11.2054
gas	-11.2055
Dân	-11.206
lí	-11.206
Âm	-11.2062
▁lưới	-11.2062
▁đốm	-11.2063
▁gói	-11.2064
War	-11.2064
sum	-11.2078
▁Ron	-11.2082
Tháo	-11.2085
▁mươi	-11.2088
▁dính	-11.2094
▁Scopula	-11.2095
ig	-11.2096
▁Castile	-11.2098
Mẫn	-11.21
sco	-11.2104
Ni	-11.2111
▁luân	-11.2113
▁Pri	-11.2113
zia	-11.2114
100	-11.2116
▁Chăm	-11.2122
▁Ç	-11.213
Cương	-11.2139
▁khía	-11.2143
▁gấu	-11.2144
ả	-11.2145
maculata	-11.2145
ngòi	-11.2146
Lộ	-11.2146
Huệ	-11.2148
đáng	-11.2151
▁Hong	-11.2152
▁Die	-11.2158
Love	-11.216
▁Chim	-11.217
đàn	-11.2174
Uyên	-11.2178
▁phổi	-11.2178
nas	-11.2186
gun	-11.2188
▁Thất	-11.2191
▁Bạc	-11.22
khác	-11.2207
▁Julius	-11.2209
▁Bát	-11.2215
anh	-11.2217
gua	-11.2219
Tháp	-11.2226
uta	-11.2229
▁Hor	-11.2238
▁nợ	-11.2239
▁đấy	-11.2239
ăng	-11.2239
▁Far	-11.224
Tinh	-11.2241
uro	-11.2243
▁Villa	-11.2243
▁Steno	-11.2244
▁Aircraft	-11.2245
mừng	-11.2247
▁Senecio	-11.2254
▁tiệc	-11.2257
▁74	-11.2259
▁1875	-11.226
▁quái	-11.2264
gy	-11.2265
ette	-11.2269
▁Gần	-11.2271
Ltd	-11.2272
▁1882	-11.2274
▁Hol	-11.2275
▁Thích	-11.2276
ism	-11.2278
▁Liverpool	-11.2287
▁und	-11.2291
▁Stalin	-11.2293
▁Đêm	-11.2294
hl	-11.2295
▁Panama	-11.23
▁Java	-11.2308
▁Sea	-11.2321
elli	-11.2325
huyết	-11.2332
▁Cap	-11.2332
▁Kh	-11.2333
▁Ye	-11.2334
Kiệt	-11.2335
tam	-11.2338
thứ	-11.234
▁Mil	-11.2341
về	-11.2342
rensis	-11.2348
soni	-11.2353
▁Cánh	-11.2354
▁dong	-11.2354
▁Pin	-11.2362
▁đói	-11.2362
▁Philipin	-11.2364
idia	-11.2366
▁Arg	-11.2375
king	-11.2375
▁Ji	-11.2377
▁Bác	-11.2382
tr	-11.2383
▁gạch	-11.2388
▁nỗi	-11.2388
▁Bắt	-11.2391
▁lưỡi	-11.2394
▁Mas	-11.2395
Lang	-11.2395
tòa	-11.2415
▁Phản	-11.2421
▁Lăng	-11.2424
chus	-11.2424
Town	-11.2427
pic	-11.2429
Toàn	-11.2432
Games	-11.2433
▁Rắn	-11.2436
vận	-11.244
▁rạp	-11.244
cro	-11.245
ane	-11.245
ila	-11.2453
Sch	-11.2455
▁110	-11.2457
▁Alan	-11.2457
phylla	-11.2459
▁Nan	-11.2462
▁Web	-11.2469
cula	-11.2469
▁Der	-11.247
punctata	-11.2472
▁Sho	-11.2473
lỗi	-11.2481
moto	-11.249
▁Wall	-11.2494
▁1886	-11.2494
▁giáng	-11.2494
▁tê	-11.2495
vẹn	-11.2496
xia	-11.2499
Hiển	-11.2499
zen	-11.2503
▁Tâm	-11.2507
thạch	-11.2509
▁SS	-11.2513
anda	-11.2514
cần	-11.2521
rs	-11.2523
OS	-11.2527
▁rải	-11.2533
Encyclopedia	-11.2533
▁Mậu	-11.2536
▁Model	-11.2538
ến	-11.2539
▁1879	-11.2543
luôn	-11.2545
bổ	-11.2546
nic	-11.2547
trẻ	-11.2554
eni	-11.2555
▁Trân	-11.2559
▁tảo	-11.256
Tề	-11.256
tựu	-11.2562
nhánh	-11.2568
ip	-11.2568
▁Pteridaceae	-11.2573
ika	-11.2575
▁73	-11.2575
▁hãy	-11.2579
▁Marne	-11.258
▁67	-11.2581
▁Rose	-11.2581
▁Time	-11.2586
uz	-11.2587
▁Franche	-11.2587
hiếm	-11.2588
hãi	-11.2588
▁Volume	-11.2589
▁Ul	-11.259
ền	-11.2596
fasciata	-11.2601
▁Croatia	-11.2601
▁Den	-11.2605
yr	-11.2605
▁1870	-11.2608
▁Hạt	-11.2608
thon	-11.2612
▁Photo	-11.2615
▁Peri	-11.2617
▁Phil	-11.2619
▁hùng	-11.2619
ania	-11.2619
▁khẩn	-11.2628
Hy	-11.2633
▁bù	-11.2634
via	-11.2642
▁Bromeliaceae	-11.2642
Khẩu	-11.2642
▁Đen	-11.2647
▁Gui	-11.2658
Francisco	-11.266
▁dũng	-11.266
▁internet	-11.2661
chen	-11.2661
▁Ráy	-11.2661
tidae	-11.2662
af	-11.2664
▁Cửa	-11.2666
▁giặc	-11.2667
▁vạch	-11.2667
phe	-11.2679
▁Gor	-11.2688
▁nộp	-11.2696
27	-11.2697
ord	-11.2701
Th	-11.2702
▁lứa	-11.2708
ago	-11.2713
▁Bao	-11.2714
▁Cấu	-11.2718
ulata	-11.2721
ophylla	-11.2724
ship	-11.2727
▁Begonia	-11.2727
▁Tha	-11.2728
▁Tạ	-11.2728
Ne	-11.2729
▁đúc	-11.2731
▁MTV	-11.2731
South	-11.2734
làng	-11.2738
▁Nigeria	-11.274
▁Alex	-11.2743
▁Comté	-11.275
vàng	-11.2755
▁bày	-11.2756
hái	-11.2757
trộn	-11.2764
nhũng	-11.2766
use	-11.2767
ert	-11.2769
▁Port	-11.2769
lắng	-11.277
vượng	-11.2772
arius	-11.2772
▁Dr	-11.2778
▁lầy	-11.2779
▁China	-11.2782
ct	-11.2783
side	-11.2785
Lanka	-11.2796
у	-11.2798
▁Cậu	-11.2811
▁đeo	-11.2813
▁Boeing	-11.2813
▁bách	-11.2813
▁Yang	-11.2816
NG	-11.2817
Bái	-11.2819
▁publ	-11.2819
eno	-11.2825
Hoàn	-11.2828
▁ngọc	-11.2828
▁Es	-11.2834
▁cuồng	-11.2839
▁Khởi	-11.284
omys	-11.2846
pseudo	-11.2848
cỡ	-11.2849
▁Brown	-11.285
▁Division	-11.285
▁cắn	-11.2852
▁opera	-11.2857
King	-11.2859
ag	-11.286
kawa	-11.2861
lum	-11.2861
▁Chen	-11.2865
tấu	-11.2866
kal	-11.2867
óc	-11.287
Ja	-11.2877
ín	-11.2879
▁Samsung	-11.288
▁nhạy	-11.288
▁hút	-11.2881
▁Chánh	-11.2885
▁Xiêm	-11.289
ticus	-11.2891
hol	-11.2892
▁Sin	-11.2895
EC	-11.29
▁cong	-11.2904
thoảng	-11.2905
▁Kenya	-11.2913
ā	-11.2914
▁Columbia	-11.2915
sổ	-11.2916
mic	-11.2916
▁ngai	-11.2918
▁bưu	-11.292
Cảng	-11.292
pat	-11.2926
▁Calli	-11.2927
oli	-11.2929
▁US	-11.2932
▁ổ	-11.2934
▁Gun	-11.2942
▁piano	-11.2943
▁Tới	-11.2947
▁Anne	-11.295
những	-11.295
ds	-11.2954
▁Kháng	-11.2955
31	-11.2956
Diệu	-11.2957
He	-11.296
▁Bảy	-11.296
Da	-11.296
▁Lạng	-11.2964
▁Nor	-11.2965
▁Hall	-11.2966
▁1880	-11.2966
ngừa	-11.2973
ms	-11.2973
▁Hypn	-11.2976
Dụ	-11.2981
sho	-11.2986
uch	-11.2988
▁Phu	-11.299
▁Pho	-11.2991
Kong	-11.2991
▁miếu	-11.2993
oa	-11.3002
thoái	-11.3011
▁cản	-11.302
▁Por	-11.3023
ếu	-11.3026
▁Bourgogne	-11.3026
▁Lớp	-11.3027
▁ngưng	-11.3027
khoán	-11.3028
▁Sky	-11.3028
▁Japan	-11.3029
quãng	-11.3029
longi	-11.3033
nga	-11.3036
▁1860	-11.3038
▁sốt	-11.3041
iaceae	-11.3041
22	-11.3041
▁1888	-11.3042
▁Blue	-11.3042
▁1869	-11.3046
máu	-11.3047
▁Roman	-11.3047
eria	-11.3049
▁Araneidae	-11.3056
nửa	-11.3057
▁dược	-11.306
optera	-11.3065
▁Đắk	-11.3065
cla	-11.3068
▁tốn	-11.3072
▁Tsu	-11.3072
sion	-11.3074
Ku	-11.3074
38	-11.3076
wo	-11.3081
heim	-11.3084
▁69	-11.3088
cháu	-11.3091
Điện	-11.3091
▁Oh	-11.3095
▁Neu	-11.3097
Hiền	-11.3103
bao	-11.3104
▁Hoằng	-11.3105
ase	-11.3106
▁Del	-11.3106
sey	-11.3108
ew	-11.311
ulosa	-11.311
▁Doanh	-11.3113
▁Chất	-11.3113
▁vịt	-11.3114
lụt	-11.3118
Dũng	-11.3118
ight	-11.312
▁Lin	-11.3122
kho	-11.3123
▁Conus	-11.3123
▁Yoshi	-11.3127
▁tour	-11.3127
zar	-11.3127
AS	-11.3129
▁bát	-11.3133
pri	-11.3134
Thúc	-11.3134
Young	-11.3135
▁Sur	-11.3144
Girl	-11.3147
▁Nar	-11.3148
▁mũ	-11.3154
▁VII	-11.3155
▁hào	-11.3158
alia	-11.3171
▁Ren	-11.3174
az	-11.3183
Khải	-11.3188
▁Gon	-11.3188
▁Spi	-11.3192
xin	-11.3193
▁trôi	-11.3194
ngựa	-11.3206
rou	-11.321
▁cục	-11.3214
▁Cảng	-11.3215
▁Plan	-11.3216
ello	-11.3217
26	-11.3222
teri	-11.3229
▁Wilson	-11.3233
aya	-11.3235
▁800	-11.3237
▁Kuntze	-11.3237
ere	-11.3239
pyr	-11.324
▁Bon	-11.3241
ét	-11.3242
ophyllum	-11.3244
▁Take	-11.3246
▁XX	-11.3248
row	-11.325
▁xoáy	-11.3251
▁thùng	-11.3251
mắn	-11.3253
ổn	-11.3254
▁Hauts	-11.3255
▁French	-11.3261
uga	-11.3261
▁Brachy	-11.3261
pogon	-11.3267
▁Andrena	-11.3267
itz	-11.3274
lặng	-11.3276
cta	-11.3283
▁1864	-11.3285
tula	-11.329
▁Đổng	-11.3292
Tuyết	-11.3294
▁Normandie	-11.3294
ò	-11.3301
▁Mur	-11.3309
▁83	-11.3311
shima	-11.3312
ör	-11.3313
▁~	-11.3313
gran	-11.3315
▁duyên	-11.3315
she	-11.3322
▁Pen	-11.3324
▁Wal	-11.3324
đãi	-11.3327
ay	-11.3327
▁Dơi	-11.3329
▁1877	-11.3331
▁Vietnam	-11.3332
ras	-11.3332
▁albi	-11.3334
Air	-11.3336
▁đ	-11.3336
▁Mạnh	-11.3345
tổ	-11.3349
lộn	-11.335
ưu	-11.335
acea	-11.3352
400	-11.3356
▁Hòn	-11.3363
ses	-11.3363
▁gu	-11.3364
▁1892	-11.3366
ath	-11.3368
▁nghiêng	-11.3371
▁1861	-11.3372
▁Mở	-11.3381
Tổng	-11.3392
wer	-11.34
bas	-11.3401
▁1887	-11.3403
nos	-11.3408
800	-11.3408
600	-11.3409
▁Occitanie	-11.3412
sul	-11.3413
▁Sim	-11.3414
chy	-11.3416
▁Napoléon	-11.3419
MS	-11.3419
▁đắc	-11.3421
Sung	-11.3422
▁liều	-11.3426
▁Madagascar	-11.3432
able	-11.3435
▁Chức	-11.344
▁neo	-11.3442
▁Sc	-11.3444
▁mạn	-11.3446
▁78	-11.3446
sson	-11.3447
semi	-11.345
▁DNA	-11.3451
▁Alfred	-11.3457
▁Var	-11.3458
▁Lại	-11.3461
▁Tháp	-11.3462
▁thâm	-11.3466
hãm	-11.3467
Đảo	-11.3468
▁Kra	-11.347
▁Night	-11.3472
▁Boston	-11.3482
▁khớp	-11.3482
ral	-11.3483
▁1873	-11.3487
▁1866	-11.3492
thấp	-11.3493
ế	-11.3496
Thelypteridaceae	-11.3497
Lưu	-11.35
ois	-11.35
▁Douglas	-11.3503
ima	-11.3504
aux	-11.3504
ning	-11.351
vôi	-11.3513
▁hố	-11.3514
ille	-11.3515
▁nở	-11.3518
▁quét	-11.3519
▁Bob	-11.3524
▁How	-11.3526
AT	-11.3528
nii	-11.3528
pol	-11.3529
chắc	-11.3529
▁Ray	-11.3529
▁GDP	-11.3536
ches	-11.3536
▁Stephen	-11.3538
lê	-11.354
▁show	-11.354
▁Conservation	-11.3549
▁Ae	-11.3552
cốt	-11.3557
Fa	-11.3557
▁Hetero	-11.3561
▁bụi	-11.3562
màu	-11.3563
Phát	-11.3565
▁José	-11.3568
ska	-11.3571
▁Theridion	-11.3573
Can	-11.3576
ssa	-11.358
cos	-11.3585
rad	-11.3588
vinh	-11.3591
Nh	-11.3591
AM	-11.3591
▁nén	-11.3593
▁lùn	-11.3597
sâu	-11.3601
▁Ludwig	-11.3606
28	-11.3607
▁Phố	-11.361
chin	-11.3611
▁fan	-11.3616
▁Chuột	-11.3618
▁Miêu	-11.362
So	-11.3623
Ngãi	-11.3623
▁Press	-11.3625
far	-11.3626
enberg	-11.3627
▁bit	-11.3628
uff	-11.3631
▁page	-11.3631
hận	-11.3632
hò	-11.3637
ì	-11.3639
▁1876	-11.3641
▁chánh	-11.3643
ée	-11.3645
▁Br	-11.3647
▁Andrenidae	-11.3649
ction	-11.3649
▁Meloidae	-11.3649
▁viếng	-11.365
▁Síp	-11.3652
▁Wood	-11.3654
▁1884	-11.3658
ë	-11.3658
▁Hieracium	-11.3663
rai	-11.3666
cờ	-11.3676
▁xóm	-11.3682
▁miếng	-11.3684
nell	-11.3684
▁Đi	-11.3688
eti	-11.3689
▁Kal	-11.3691
tắt	-11.3695
▁kép	-11.3695
▁Sil	-11.3699
illo	-11.3701
quạt	-11.3703
Chân	-11.3707
▁tôm	-11.3709
nhượng	-11.3711
▁thận	-11.3713
stan	-11.3713
Nghiệp	-11.372
star	-11.372
lot	-11.3721
lio	-11.3723
Chart	-11.3725
▁1883	-11.3726
oy	-11.3728
▁Đồ	-11.3729
▁Ram	-11.3729
Tống	-11.373
tru	-11.3737
gũi	-11.3738
▁lui	-11.3739
ls	-11.3741
▁Oregon	-11.3743
▁nạp	-11.3745
▁Latin	-11.3746
▁semi	-11.3748
▁German	-11.3752
had	-11.3764
▁1871	-11.3772
rich	-11.3772
tuệ	-11.3777
▁Hill	-11.3781
ade	-11.3782
▁87	-11.3783
mma	-11.3786
cata	-11.3787
▁Dryopteris	-11.3792
Ấn	-11.3795
▁Khách	-11.3797
Thư	-11.3798
▁86	-11.38
▁101	-11.3803
cóc	-11.3804
▁Camp	-11.3805
lat	-11.3808
AN	-11.3809
▁1863	-11.381
▁Biểu	-11.3813
ture	-11.3817
▁Phủ	-11.3818
▁State	-11.3819
sim	-11.3821
▁buồng	-11.3821
Cốc	-11.3825
viễn	-11.3826
▁1874	-11.3828
Cầu	-11.3831
▁León	-11.3833
nik	-11.3833
▁99	-11.3834
sun	-11.3839
thận	-11.384
phy	-11.384
das	-11.3842
▁tím	-11.3843
Cai	-11.3847
▁nảy	-11.3857
neri	-11.386
▁rồng	-11.386
trội	-11.3863
oma	-11.3868
▁Scott	-11.3869
dam	-11.387
hua	-11.3871
▁America	-11.3872
▁hi	-11.3872
cord	-11.3881
▁Chiêm	-11.3883
▁1838	-11.3884
nen	-11.3884
к	-11.3888
kun	-11.389
eana	-11.3895
▁bìa	-11.3896
Bank	-11.3897
▁hàn	-11.39
▁rùa	-11.3913
▁One	-11.3915
đồn	-11.3916
day	-11.3916
▁96	-11.392
▁are	-11.392
giành	-11.3922
ander	-11.3928
hoang	-11.3928
▁1867	-11.3928
▁Awards	-11.3929
phon	-11.3929
dược	-11.393
▁bám	-11.3937
ston	-11.3945
▁Thêm	-11.3946
phỏng	-11.3948
▁1881	-11.3949
đẻ	-11.3951
▁Mẫu	-11.3955
▁thiền	-11.3959
▁Hứa	-11.3967
now	-11.397
▁Hassan	-11.397
oka	-11.3971
lic	-11.3971
▁Jun	-11.3971
▁Miến	-11.3973
▁This	-11.3974
▁tĩnh	-11.3974
▁Rau	-11.3975
Jo	-11.398
bé	-11.3982
lạnh	-11.3985
ã	-11.3989
▁Càn	-11.399
32	-11.399
back	-11.3992
ifolius	-11.3992
▁rẻ	-11.3993
Ngạn	-11.4006
hiếp	-11.4011
▁Jung	-11.4017
AR	-11.4018
▁And	-11.4025
▁Iso	-11.4025
▁Call	-11.4029
stigma	-11.4031
▁Your	-11.4031
▁about	-11.4031
view	-11.4034
Thảo	-11.4036
▁macro	-11.4039
▁Piper	-11.4041
▁ngầm	-11.4042
▁Science	-11.4047
▁nhậm	-11.4049
vol	-11.4049
dữ	-11.4053
Lãng	-11.4053
▁quên	-11.4053
▁rạn	-11.4057
▁Sul	-11.4058
igera	-11.4059
Liga	-11.4062
ptera	-11.4064
▁Cựu	-11.4064
hạnh	-11.4064
▁98	-11.4068
▁Oxy	-11.407
AP	-11.407
▁rửa	-11.4072
▁say	-11.4073
▁Làm	-11.4073
▁Eury	-11.4075
fra	-11.4078
▁XIX	-11.4079
ở	-11.4079
một	-11.4082
▁Hel	-11.4084
▁Bol	-11.4087
ashi	-11.4088
▁cười	-11.4089
▁soái	-11.4095
▁Epidendrum	-11.4096
enia	-11.4096
SA	-11.4098
▁79	-11.4105
▁Màu	-11.4108
iflora	-11.4112
tas	-11.4115
êm	-11.4116
▁sói	-11.4129
29	-11.4131
▁Mordellistena	-11.4136
▁nhọn	-11.4142
▁Norman	-11.4142
Show	-11.4147
▁xích	-11.4148
fort	-11.4154
▁YouTube	-11.4155
▁codice	-11.4155
ial	-11.4155
mập	-11.4155
hấp	-11.4163
о	-11.4164
mỏ	-11.4164
▁cẩn	-11.4167
ải	-11.4169
▁Zi	-11.417
▁Hypo	-11.4171
Database	-11.4171
▁gốm	-11.4177
▁Tetra	-11.4177
▁phẫu	-11.4177
ness	-11.4185
Story	-11.4186
epi	-11.4186
yana	-11.419
▁kilômét	-11.4191
eda	-11.4191
▁Francis	-11.4194
▁Barcelona	-11.4198
▁đày	-11.4199
nk	-11.4199
▁Macedonia	-11.4201
▁İ	-11.4206
mark	-11.4207
▁trộn	-11.4219
▁Pardosa	-11.4224
▁hối	-11.4225
▁Adam	-11.4227
cas	-11.4228
▁Ou	-11.4229
aba	-11.4234
▁Pop	-11.4236
Yu	-11.4237
▁Eric	-11.4239
▁sọc	-11.4239
sz	-11.424
Hổ	-11.4241
cri	-11.4246
▁Ivan	-11.4251
▁list	-11.4251
hop	-11.4252
▁thách	-11.4254
▁Nhiệm	-11.4258
▁Juan	-11.426
▁vĩnh	-11.4261
▁Sai	-11.427
▁Mus	-11.4273
▁tản	-11.4277
tụng	-11.4279
▁Thác	-11.4287
▁Luc	-11.4289
т	-11.429
▁Kor	-11.4292
Pro	-11.4293
▁Ala	-11.4301
kiệm	-11.4306
▁Triết	-11.4307
etti	-11.4317
▁Liệt	-11.4323
▁Kiên	-11.4324
▁khiêu	-11.4324
▁Tiệp	-11.4326
▁móng	-11.4327
▁Gò	-11.4329
▁Tanzania	-11.4331
ries	-11.4334
▁Jordan	-11.4339
phản	-11.4341
▁1862	-11.4341
hạch	-11.4349
ono	-11.435
xo	-11.4352
▁Ái	-11.4353
▁Trans	-11.4354
▁1,5	-11.4355
▁Of	-11.4357
▁Arsenal	-11.4358
▁TS	-11.4359
bàng	-11.4365
▁Apple	-11.4369
▁kỉ	-11.437
bó	-11.437
gla	-11.4372
albi	-11.4372
▁Thôi	-11.4374
▁that	-11.4378
▁Bri	-11.438
▁Acro	-11.4383
▁nho	-11.4389
▁Clubiona	-11.4391
oensis	-11.4394
▁Son	-11.4396
iri	-11.4397
▁eds	-11.4398
iya	-11.4408
▁muộn	-11.4412
▁Aero	-11.4419
huyện	-11.4419
▁160	-11.4422
▁QĐ	-11.4422
▁Chang	-11.4426
▁Mitt	-11.4427
▁Little	-11.4428
▁Mọi	-11.4429
▁Nhị	-11.4431
▁1865	-11.4437
ắp	-11.4438
▁khoang	-11.4438
hước	-11.4448
▁sôi	-11.4448
lineata	-11.4452
une	-11.4452
▁Chase	-11.4453
85	-11.4455
eva	-11.4456
▁vol	-11.4457
time	-11.4462
tti	-11.4466
▁Hộ	-11.4468
ifer	-11.4468
mini	-11.447
▁thang	-11.4472
▁vách	-11.4478
yer	-11.4481
ardi	-11.4482
from	-11.4483
▁Philip	-11.4486
▁khóc	-11.4492
▁Massachusetts	-11.4496
Triều	-11.4498
col	-11.45
▁xoắn	-11.45
▁1868	-11.45
vor	-11.4501
▁Club	-11.4501
ă	-11.4507
▁105	-11.4512
sp	-11.4514
Bà	-11.4516
Đan	-11.4521
Chính	-11.4522
mys	-11.4524
▁Qu	-11.4527
д	-11.4528
▁Orchid	-11.4529
▁Đạt	-11.453
▁cacbon	-11.453
▁Ker	-11.4531
▁Andrew	-11.4533
▁thổi	-11.4533
▁Johnson	-11.4536
▁Mono	-11.4538
oh	-11.4539
bác	-11.454
▁Ký	-11.4549
loba	-11.4551
▁Xích	-11.4552
gre	-11.4554
▁quỷ	-11.4557
lái	-11.4561
▁1850	-11.4564
Triệu	-11.4565
ER	-11.4568
▁General	-11.4568
▁his	-11.4569
▁Sel	-11.4569
PS	-11.4571
▁đụng	-11.4573
ose	-11.4575
▁Naga	-11.4579
nhiêu	-11.458
▁Nà	-11.4581
▁long	-11.4583
▁cuộn	-11.4589
ocera	-11.459
▁Luer	-11.4592
▁múa	-11.4592
▁92	-11.4594
mm	-11.4594
▁Albania	-11.4595
phia	-11.4596
Giản	-11.4596
▁Thung	-11.4596
▁Open	-11.4597
tiễn	-11.4599
▁Riêng	-11.4603
Pe	-11.4605
▁Ay	-11.4606
kon	-11.461
vari	-11.4613
Records	-11.4613
▁lỏng	-11.4616
▁140	-11.4618
▁Nhiệt	-11.4618
eth	-11.4619
▁Tốc	-11.4621
vu	-11.4622
đặc	-11.4623
▁Giáp	-11.4625
Rai	-11.4625
ây	-11.4626
soái	-11.4629
bếp	-11.4636
▁bầy	-11.4638
cana	-11.4642
enti	-11.4645
04	-11.4647
rae	-11.4651
đạn	-11.4654
▁bin	-11.4656
▁Bro	-11.466
▁Palestine	-11.466
Hu	-11.4663
▁Ching	-11.4668
▁CLB	-11.4669
▁CH	-11.4671
▁Eucalyptus	-11.4672
fin	-11.4672
▁ngụ	-11.4675
▁nốt	-11.4677
▁Vu	-11.468
▁Boiss	-11.4684
rey	-11.4686
▁Not	-11.4687
site	-11.4694
bổng	-11.4696
sấu	-11.4696
▁kì	-11.4697
tsch	-11.4703
Fri	-11.4703
cốc	-11.4704
lường	-11.4705
▁Mun	-11.4709
sil	-11.4713
▁Bờ	-11.4713
90	-11.4715
old	-11.4715
èze	-11.4716
sonii	-11.4716
Rica	-11.4724
oon	-11.4724
▁hẹn	-11.4732
Association	-11.4735
chở	-11.4738
в	-11.4739
tch	-11.4741
ito	-11.4742
▁Gặm	-11.4742
wal	-11.4743
hụt	-11.4744
▁Crypto	-11.475
▁97	-11.4752
ầm	-11.4754
▁giày	-11.4756
▁Bang	-11.4759
ngột	-11.4762
súng	-11.4762
thả	-11.4763
Dong	-11.4767
Viễn	-11.4767
▁xấp	-11.4769
sang	-11.4769
iopsis	-11.4771
▁inch	-11.4771
feld	-11.4773
nal	-11.4777
▁hydro	-11.4778
▁đệm	-11.478
Thạch	-11.4782
▁Romania	-11.4788
▁Roger	-11.4789
▁Mol	-11.4792
chel	-11.4793
vil	-11.4795
▁Đá	-11.4796
▁vươn	-11.4797
▁new	-11.4798
▁Croton	-11.4799
wei	-11.4799
▁nắng	-11.48
icornis	-11.48
Tôn	-11.4802
▁điền	-11.4804
Har	-11.4809
top	-11.481
▁«	-11.481
mine	-11.4811
ớ	-11.4814
▁1858	-11.4816
schi	-11.4818
▁vội	-11.4819
Com	-11.4822
Ru	-11.4823
▁Phụng	-11.4826
▁Ung	-11.4828
ici	-11.4828
▁High	-11.4829
▁dệt	-11.4835
▁tha	-11.4837
Phổ	-11.4837
mori	-11.4838
then	-11.4838
▁Polypodium	-11.4839
▁lây	-11.4839
▁thở	-11.4839
bóng	-11.484
út	-11.4841
stor	-11.4847
cio	-11.4851
▁Journal	-11.4853
mé	-11.4854
soma	-11.4854
700	-11.4856
▁ngô	-11.4858
ess	-11.4861
Ji	-11.4864
cera	-11.4865
pod	-11.4865
▁XII	-11.4872
rata	-11.4872
▁Idaea	-11.4874
run	-11.4876
mmer	-11.4876
lệch	-11.4878
omi	-11.4888
ắt	-11.489
má	-11.4892
▁Sy	-11.4894
▁Auto	-11.4896
▁multi	-11.4896
nei	-11.4896
cast	-11.4896
▁Nepal	-11.4899
dale	-11.4899
kra	-11.4902
▁Mag	-11.4903
▁Phượng	-11.4903
nin	-11.4904
pala	-11.4908
key	-11.4917
illi	-11.4917
▁Chuyến	-11.4917
quật	-11.4917
Liệt	-11.4928
ầu	-11.493
▁xạ	-11.4931
▁Mr	-11.4933
▁Bru	-11.4933
▁Ng	-11.4934
dri	-11.4942
nạp	-11.4947
manni	-11.4949
▁Im	-11.4951
▁Jane	-11.4952
▁Giáng	-11.4956
▁1854	-11.4956
het	-11.4959
▁Matt	-11.4959
mol	-11.4962
▁Lớn	-11.4965
bei	-11.4966
▁91	-11.4967
▁180	-11.4969
sc	-11.4975
▁Tử	-11.4977
dre	-11.4977
stre	-11.4987
▁Shu	-11.4992
▁đắm	-11.4995
▁Frederick	-11.5
▁Brian	-11.5004
▁Arecaceae	-11.5004
rk	-11.5007
sma	-11.5007
▁First	-11.5009
bóc	-11.5011
ỗ	-11.5013
▁Liban	-11.5019
DS	-11.5021
hài	-11.5021
hun	-11.5023
▁mồ	-11.503
iidae	-11.5031
▁Saône	-11.5032
▁Khả	-11.5036
▁trọn	-11.5036
Pradesh	-11.5036
ủ	-11.5038
cat	-11.504
▁Vladimir	-11.5041
▁1848	-11.5051
City	-11.5053
▁Nova	-11.5054
bit	-11.5054
▁albo	-11.5057
▁Cle	-11.5057
▁Yêu	-11.5059
chỗ	-11.5061
wen	-11.5064
dei	-11.5065
hao	-11.5065
Nghị	-11.5066
tĩnh	-11.5068
alba	-11.5068
▁Dendrobium	-11.5068
ux	-11.5068
ấm	-11.507
▁Khâm	-11.5071
▁Nhìn	-11.5071
Kiên	-11.508
El	-11.508
zz	-11.5081
▁Liễu	-11.5082
ghi	-11.5083
65	-11.5085
St	-11.5087
▁Colletidae	-11.5088
lau	-11.5094
úp	-11.5099
ocarpa	-11.5099
▁tô	-11.5101
ctus	-11.5109
our	-11.5112
▁Cương	-11.5112
Bàng	-11.5117
albo	-11.5118
▁Clo	-11.512
Sport	-11.5125
▁Côn	-11.5125
miền	-11.5125
dur	-11.5126
▁Ngôn	-11.5128
py	-11.5128
▁cưỡi	-11.5132
▁tang	-11.5134
▁xà	-11.5136
▁1857	-11.5137
bou	-11.5137
▁Súng	-11.5139
▁Herbert	-11.5141
Trắng	-11.5145
▁Free	-11.5145
Airways	-11.5153
▁Chuyển	-11.5153
▁củ	-11.5154
▁Comp	-11.5157
wald	-11.5158
vững	-11.5162
shu	-11.5164
world	-11.5165
▁ái	-11.5165
thí	-11.5165
▁hỏng	-11.5167
▁1836	-11.5175
dầu	-11.5179
mùa	-11.5179
▁rễ	-11.5179
▁Cuốn	-11.518
▁phiến	-11.5181
▁tị	-11.5182
ổ	-11.5184
stro	-11.5187
ets	-11.5187
less	-11.5188
▁Đàm	-11.5189
kei	-11.5191
Nô	-11.5192
lati	-11.5192
▁Bruce	-11.5195
Per	-11.5195
điền	-11.5195
nova	-11.5202
med	-11.5204
đôi	-11.5204
poli	-11.521
book	-11.5211
ía	-11.5213
ø	-11.5213
SE	-11.5213
▁Wu	-11.5216
this	-11.5217
ocarpus	-11.5217
▁Quyển	-11.5218
▁lành	-11.5223
inum	-11.5224
cap	-11.5226
▁Ash	-11.5227
▁phiêu	-11.523
▁News	-11.523
▁quà	-11.5237
ien	-11.5241
▁Năng	-11.5245
▁bệ	-11.5246
uda	-11.5248
0,1	-11.525
bos	-11.525
▁Georgia	-11.525
rap	-11.5251
ful	-11.5253
kara	-11.5253
▁solo	-11.5255
leri	-11.5256
▁táo	-11.5259
Island	-11.5261
▁Sáu	-11.5261
▁Carlos	-11.5261
▁Trụ	-11.5264
▁Bàn	-11.5266
▁Ros	-11.5268
▁Belarus	-11.527
▁Meso	-11.5279
cou	-11.5286
▁lõi	-11.5286
Is	-11.529
▁Jon	-11.5292
▁1846	-11.5293
▁MV	-11.5293
▁lọc	-11.5295
▁VIII	-11.5301
halli	-11.5301
▁lắm	-11.5303
trăm	-11.5303
▁Joe	-11.5304
sse	-11.5305
Kính	-11.5305
Am	-11.5309
CS	-11.5312
cea	-11.5315
zel	-11.5324
Đường	-11.5324
nhắc	-11.5325
▁single	-11.5325
eto	-11.5329
assa	-11.533
tura	-11.5331
▁Holo	-11.5333
tom	-11.5338
▁1753	-11.5342
▁Stra	-11.5342
Jackson	-11.5343
▁Lập	-11.5345
▁Mé	-11.5348
carpa	-11.5351
▁khoan	-11.5351
▁Hollywood	-11.5354
ever	-11.5354
taria	-11.5356
lov	-11.5357
▁Old	-11.5358
▁1830	-11.5359
aw	-11.5359
▁Checklist	-11.5361
phổ	-11.5361
▁mưu	-11.5364
201	-11.5365
cel	-11.5368
iv	-11.5368
mag	-11.5372
mực	-11.5372
bot	-11.5378
light	-11.5379
▁Vũng	-11.5381
▁Eugenia	-11.5383
▁cơm	-11.5384
Jersey	-11.5385
▁Tết	-11.5389
▁Lejeuneaceae	-11.539
pınar	-11.5394
▁1849	-11.5394
char	-11.5398
▁Chuyện	-11.5398
▁Kam	-11.5401
hou	-11.5406
▁Rome	-11.5407
▁Nậm	-11.5407
▁Amphi	-11.5409
enko	-11.5409
▁Lim	-11.5412
▁Christ	-11.5412
▁Đoạn	-11.5414
▁Berg	-11.5415
▁Mồ	-11.5422
▁Rad	-11.5422
tên	-11.5422
hard	-11.5424
▁1851	-11.5428
▁Bolivia	-11.5431
▁Mike	-11.5438
nhi	-11.5438
▁Bức	-11.5439
▁dạ	-11.5445
tit	-11.545
▁Ngược	-11.5452
lle	-11.5453
▁What	-11.5454
▁Theridiidae	-11.5456
micro	-11.5458
▁car	-11.5463
illy	-11.5464
rong	-11.5466
▁Grammy	-11.5466
ming	-11.5467
▁Victor	-11.5467
ites	-11.5469
Tr	-11.5469
▁Kamen	-11.5471
35	-11.5472
gram	-11.5473
màng	-11.5473
ington	-11.5474
▁ngài	-11.5477
én	-11.5478
▁Pur	-11.5478
té	-11.5479
Min	-11.5479
isa	-11.5479
▁Mordellidae	-11.5485
chuộng	-11.5485
▁tre	-11.5486
issa	-11.5489
▁Rất	-11.549
▁Jim	-11.5491
ante	-11.5493
bes	-11.5494
▁mù	-11.5495
▁Nick	-11.5497
▁Île	-11.5497
Smith	-11.5499
▁Pla	-11.5507
▁Toán	-11.5507
fusca	-11.5507
auri	-11.5507
ust	-11.5508
03	-11.5517
▁Az	-11.5519
cưới	-11.552
nigra	-11.5521
▁Part	-11.5523
vas	-11.5525
nensis	-11.5527
ward	-11.5527
cca	-11.553
▁Sk	-11.5532
▁Chuyên	-11.5536
▁700	-11.5537
Động	-11.5537
itis	-11.5539
▁1872	-11.554
aro	-11.5541
Nhật	-11.5543
quin	-11.5544
▁Chryso	-11.5552
oid	-11.556
▁nướng	-11.5561
Ge	-11.5566
cam	-11.5566
▁leuco	-11.557
▁Gal	-11.5572
▁Steve	-11.5578
▁Tortricidae	-11.5579
▁Truyện	-11.5579
▁1845	-11.5581
▁hiền	-11.5582
Network	-11.5583
cải	-11.5584
Grande	-11.5584
Đằng	-11.5586
NT	-11.5587
Society	-11.5587
▁dại	-11.5587
osoma	-11.5589
gõ	-11.559
▁Auvergne	-11.559
sley	-11.559
Post	-11.559
hon	-11.5595
Hầu	-11.5598
▁chẩn	-11.5599
ỉ	-11.5599
▁official	-11.5611
NH	-11.5612
Thống	-11.5613
Ver	-11.5614
▁93	-11.5614
inia	-11.5615
nổi	-11.5615
màn	-11.5616
▁Cra	-11.5616
▁nhường	-11.5617
Lạp	-11.5617
▁Marc	-11.5622
gle	-11.5623
lica	-11.5624
dĩ	-11.5624
all	-11.5631
cắp	-11.5631
▁Sh	-11.5632
▁Syzygium	-11.5632
eau	-11.5634
seri	-11.5635
bb	-11.5636
▁yểm	-11.5636
rov	-11.5638
dium	-11.5639
gai	-11.5642
SI	-11.5642
▁xen	-11.5647
▁Kênh	-11.5649
▁mộc	-11.5651
▁cua	-11.5653
▁Marshall	-11.5654
▁Ny	-11.5655
ắc	-11.5656
camp	-11.5666
▁Melanotus	-11.5671
▁Dubai	-11.5671
▁Aleksandr	-11.5673
▁cúng	-11.5675
▁men	-11.5678
▁spin	-11.5678
oro	-11.5682
lé	-11.5682
▁Mart	-11.5685
mến	-11.5689
▁phúc	-11.5692
hoãn	-11.5694
PA	-11.5696
▁Chan	-11.5697
▁trừng	-11.5697
Nhan	-11.57
▁Asia	-11.5701
▁1853	-11.5703
▁Are	-11.5703
nata	-11.5707
mina	-11.5708
▁cắm	-11.5713
mana	-11.5715
ule	-11.5724
▁Media	-11.5726
rang	-11.5727
▁Chữ	-11.5728
▁Ngài	-11.5731
gawa	-11.5738
▁Chr	-11.5738
hẹn	-11.5741
beri	-11.5743
loa	-11.575
▁Kẻ	-11.5752
▁hung	-11.5753
▁khổ	-11.5757
ž	-11.576
apa	-11.5761
▁Ville	-11.5762
▁Xê	-11.5764
▁gọn	-11.5765
▁1840	-11.5774
▁Latinh	-11.5783
Khang	-11.5785
▁tambon	-11.5791
▁Phe	-11.5791
ance	-11.5792
maculatus	-11.5792
▁Lycosidae	-11.5794
▁nhượng	-11.58
▁Play	-11.58
▁Wolf	-11.58
▁www	-11.5803
ques	-11.5804
▁brevi	-11.5808
ons	-11.5809
Mạng	-11.5813
móc	-11.5815
▁Michel	-11.5817
▁Fox	-11.5817
▁Tony	-11.5818
pas	-11.5821
▁Pachy	-11.5825
▁Túc	-11.5825
Học	-11.5828
dera	-11.583
▁đính	-11.5831
05	-11.5832
▁English	-11.5832
▁Gre	-11.5839
▁Award	-11.5839
▁cành	-11.5841
01	-11.5844
▁Pet	-11.5844
ppa	-11.5845
▁Iceland	-11.5846
uy	-11.5847
ryaceae	-11.5848
н	-11.5849
▁Af	-11.585
▁Kang	-11.5852
45	-11.5852
▁End	-11.5852
п	-11.5854
▁lựu	-11.5855
trướng	-11.5855
rod	-11.5857
▁he	-11.5859
▁PC	-11.5862
▁Ptero	-11.5863
▁Thí	-11.5866
▁Masa	-11.5868
Life	-11.5869
▁Williams	-11.5869
▁Jones	-11.5871
▁89	-11.5874
▁pin	-11.5877
▁Gioan	-11.5879
pit	-11.5882
opa	-11.5887
▁Cantharidae	-11.5889
suke	-11.589
06	-11.5894
▁Allen	-11.5897
rào	-11.5899
sol	-11.59
ờ	-11.59
sie	-11.5901
Nhạc	-11.5904
Hoài	-11.5904
▁Tang	-11.5906
County	-11.5908
▁Mang	-11.5911
ilia	-11.5914
▁1841	-11.5915
flora	-11.5916
Tri	-11.5918
▁94	-11.5919
▁125	-11.5919
▁vòm	-11.592
▁Rhin	-11.5922
▁Xưởng	-11.5924
ić	-11.5925
▁ván	-11.5929
▁Quán	-11.5938
▁Good	-11.5945
▁kiệt	-11.5945
▁Inc	-11.5948
▁bộc	-11.5949
▁Puerto	-11.595
▁Mat	-11.5951
lepis	-11.5954
▁Tượng	-11.5954
cornis	-11.5956
0,2	-11.5957
▁Cụ	-11.596
rian	-11.5961
09	-11.5962
kéo	-11.5963
▁Uganda	-11.5964
hỏng	-11.5966
mut	-11.5967
lãnh	-11.597
platy	-11.5971
▁Lake	-11.5972
hei	-11.5978
ssel	-11.5979
Huyền	-11.5981
trái	-11.5985
▁XIV	-11.5986
tàu	-11.5986
tae	-11.599
thia	-11.5992
▁Sei	-11.5998
▁Quế	-11.5998
▁bass	-11.5998
▁Alaska	-11.5999
cong	-11.5999
▁Dam	-11.6
▁Rider	-11.6001
▁Gabriel	-11.6002
mạo	-11.6003
▁mát	-11.601
▁trộm	-11.6014
Quán	-11.6015
▁Leon	-11.6017
▁Sub	-11.6018
ếp	-11.6018
▁bùn	-11.6025
▁Mississippi	-11.6025
▁Monitoring	-11.6025
▁Amazon	-11.6027
Franc	-11.6028
Thụy	-11.6031
▁Amaryllidaceae	-11.6034
▁Australian	-11.6035
▁Beau	-11.6036
Bích	-11.6036
53	-11.6037
idus	-11.6039
ợ	-11.6041
cola	-11.6041
lly	-11.6042
Fe	-11.6043
ult	-11.6044
▁Kai	-11.6044
ể	-11.6046
osaurus	-11.6049
▁lặn	-11.6049
Est	-11.605
▁Tranh	-11.6051
▁Vấn	-11.6052
Đà	-11.6054
Paulo	-11.6056
▁đê	-11.606
Ben	-11.6063
▁Thomisidae	-11.6065
Group	-11.6068
▁chừng	-11.6068
▁Moore	-11.6068
▁Davis	-11.6068
đoạt	-11.6073
▁1844	-11.6075
Sound	-11.6076
lùng	-11.6079
▁Fire	-11.6082
▁Ethiopia	-11.6082
▁Las	-11.6089
▁Tillandsia	-11.6091
spin	-11.6095
▁Cur	-11.6097
▁khe	-11.6098
▁XIII	-11.6099
UN	-11.6102
▁Sydney	-11.6104
▁Gregory	-11.6105
▁Ea	-11.6109
▁Okinawa	-11.611
mari	-11.6114
tháng	-11.6116
Khuê	-11.612
Tường	-11.612
yang	-11.6122
▁đành	-11.6123
brevi	-11.6124
▁Sùng	-11.6124
▁dậy	-11.6125
▁rụng	-11.6127
ique	-11.6131
led	-11.6131
▁Culture	-11.6133
sắm	-11.6133
toni	-11.6133
Khanh	-11.6137
▁Đăng	-11.6137
▁Calais	-11.6141
Khoa	-11.6143
▁đắt	-11.6145
▁Gro	-11.6146
Quỳnh	-11.6146
dere	-11.6147
gli	-11.6147
Mu	-11.615
▁Group	-11.6155
khan	-11.6157
ès	-11.6158
▁Ari	-11.6158
đà	-11.6158
▁Stephani	-11.6159
iba	-11.6161
Ve	-11.6167
46	-11.6168
phae	-11.6171
leyi	-11.6172
ngơi	-11.6173
iza	-11.6178
▁Proto	-11.618
▁Xysticus	-11.618
nce	-11.6188
Bulbophyllum	-11.6188
▁sp	-11.6189
▁Miss	-11.6189
rim	-11.6191
▁Levi	-11.6192
pennis	-11.6193
▁Tumkur	-11.6194
enburg	-11.6195
shire	-11.6196
anthera	-11.6201
gur	-11.6202
▁Dựa	-11.6207
▁Dor	-11.6208
▁Bryum	-11.6208
▁Win	-11.6211
▁bể	-11.6213
02	-11.6215
yoshi	-11.6216
ij	-11.6219
khát	-11.6221
▁Ky	-11.6227
fan	-11.623
▁kiềm	-11.6234
▁Christopher	-11.6236
ôn	-11.6237
▁khói	-11.6237
pura	-11.6243
▁nghịch	-11.6248
macro	-11.6248
▁August	-11.6254
▁khuyết	-11.6254
▁Dicranaceae	-11.6257
▁Trại	-11.6261
▁Myanmar	-11.6268
ib	-11.6271
anica	-11.6271
▁nigro	-11.6272
não	-11.6274
melan	-11.6279
cây	-11.6281
▁Lewis	-11.6288
▁Pfalz	-11.6288
▁2,5	-11.6292
▁khánh	-11.6293
▁vắng	-11.6294
▁nhật	-11.6295
llo	-11.6295
ava	-11.6297
Hỏa	-11.6298
▁khuynh	-11.6302
▁Antonio	-11.6307
ving	-11.6308
▁Hắc	-11.6309
fel	-11.6309
opteris	-11.6312
▁Cape	-11.6313
onensis	-11.6315
Tương	-11.6315
nghiệt	-11.6316
▁mầm	-11.6316
atro	-11.632
Lục	-11.632
▁Bla	-11.6326
Lĩnh	-11.633
▁God	-11.633
Kh	-11.6331
Ya	-11.6332
iola	-11.6333
uf	-11.6335
hãn	-11.6336
▁điên	-11.6337
tần	-11.6337
4,5	-11.6338
còn	-11.634
▁Gruzia	-11.6343
▁François	-11.6343
▁Cừu	-11.6343
oxy	-11.6343
▁Hei	-11.6344
ển	-11.6346
▁đẳng	-11.6347
ox	-11.6347
Tàu	-11.6347
▁chỉnh	-11.635
late	-11.6353
head	-11.6356
▁Jacob	-11.6359
▁trans	-11.636
▁Team	-11.6366
oku	-11.637
Road	-11.6371
▁Hen	-11.6378
điều	-11.6379
rệt	-11.6381
mối	-11.6381
peri	-11.6382
ico	-11.6385
▁Bern	-11.6386
▁Tám	-11.6387
▁Sức	-11.6389
▁mỡ	-11.639
▁GS	-11.6398
Martin	-11.6399
bảy	-11.64
▁nhiễu	-11.64
rắn	-11.6401
▁Chia	-11.6406
ball	-11.641
▁thắt	-11.6412
đảng	-11.6412
Hoan	-11.6414
▁Pod	-11.6414
▁Lept	-11.6415
lina	-11.642
áng	-11.6422
▁Radio	-11.6427
▁USA	-11.6433
▁dừa	-11.6434
▁Zu	-11.6435
Point	-11.6437
Way	-11.6438
ee	-11.644
▁hươu	-11.6443
nhiều	-11.6443
uter	-11.6443
▁Dai	-11.6445
siana	-11.6447
bul	-11.645
▁Din	-11.6453
▁Fer	-11.6454
mara	-11.6455
▁electron	-11.6456
▁Nền	-11.646
costa	-11.6462
▁Otto	-11.6468
kel	-11.6471
▁Aki	-11.6471
buýt	-11.6471
Mạnh	-11.6475
▁Choi	-11.6476
▁Information	-11.6476
esi	-11.6477
▁Somme	-11.6477
als	-11.6479
▁hiếu	-11.6481
comp	-11.6482
▁dò	-11.6483
▁Kevin	-11.6486
vùng	-11.6487
▁Lady	-11.6489
50	-11.6497
56	-11.6498
ssi	-11.6502
nom	-11.6502
University	-11.6502
lensis	-11.6503
▁Doãn	-11.6505
▁rủi	-11.6506
▁bá	-11.6506
▁Hydro	-11.6509
gr	-11.6509
я	-11.6514
mera	-11.6514
sser	-11.6515
▁Hang	-11.6522
▁Cas	-11.6527
▁phấn	-11.6529
iano	-11.653
tius	-11.653
▁Alabama	-11.6531
vá	-11.6536
▁EP	-11.6537
▁170	-11.6538
▁Alt	-11.6539
▁Fin	-11.6541
Sở	-11.6542
TC	-11.6543
▁Batman	-11.6546
▁Út	-11.6549
▁tơ	-11.6553
▁Bạn	-11.6554
nagar	-11.6557
34	-11.6558
gna	-11.6558
Te	-11.6558
▁Harvard	-11.6559
ace	-11.6561
Kiếm	-11.6564
eira	-11.6567
▁Provence	-11.6573
pul	-11.6574
Bạt	-11.6575
not	-11.6575
▁NASA	-11.6577
▁André	-11.6578
▁Khái	-11.6581
▁Sara	-11.6583
▁Dun	-11.6587
▁Chứng	-11.659
▁thủng	-11.659
fish	-11.6591
ür	-11.6591
▁Bãi	-11.6591
▁Dal	-11.6595
rose	-11.6598
▁Hổ	-11.66
▁nhốt	-11.6606
▁Young	-11.6609
Junior	-11.661
▁Neckera	-11.6614
▁Sachsen	-11.6616
Tum	-11.6617
măng	-11.6618
bio	-11.6618
▁Phaolô	-11.6619
dae	-11.6619
leo	-11.662
▁Ir	-11.6621
▁Khương	-11.6623
41	-11.6623
▁Baltic	-11.6625
vỡ	-11.6628
▁Jin	-11.6631
Sen	-11.6632
coma	-11.6634
stri	-11.6639
gno	-11.6639
▁Hylaeus	-11.6643
Ireland	-11.6644
▁Institute	-11.6644
Tố	-11.6647
▁Litva	-11.6648
dong	-11.6649
phan	-11.6651
▁Key	-11.6652
may	-11.6655
tern	-11.6657
60	-11.6659
▁xông	-11.6662
▁Austro	-11.6662
adi	-11.6662
▁Say	-11.6665
miện	-11.6669
▁2020	-11.6669
▁ngắm	-11.6671
ceps	-11.6674
54	-11.6677
Pháp	-11.6679
▁Alice	-11.6684
▁Thor	-11.6684
Creek	-11.6688
mặn	-11.669
▁gan	-11.6693
▁Dicranomyia	-11.6694
nit	-11.6695
Gra	-11.6698
ọ	-11.6701
eve	-11.6702
Hide	-11.6712
▁giấc	-11.6712
wick	-11.6712
cephalus	-11.6712
▁ngũ	-11.6716
▁mờ	-11.6716
ệt	-11.6717
▁360	-11.6717
house	-11.6718
▁Bangkok	-11.6718
tạc	-11.6718
meri	-11.6723
▁láng	-11.6725
▁Bat	-11.6726
▁Socorro	-11.6727
▁đinh	-11.6729
▁gánh	-11.6735
phora	-11.6738
dent	-11.6743
int	-11.6746
Mexico	-11.6749
55	-11.675
▁Fr	-11.6755
burn	-11.6758
phus	-11.6758
pla	-11.6758
▁Cốt	-11.6758
▁Gy	-11.6761
uit	-11.6761
tive	-11.6762
Foundation	-11.6765
▁Pyrénées	-11.677
Hill	-11.6772
escens	-11.6775
DA	-11.6775
roy	-11.6776
▁XI	-11.6777
béo	-11.6777
Dục	-11.6779
▁Moon	-11.6783
▁Android	-11.6784
Tài	-11.6786
▁đằng	-11.6789
▁luồng	-11.679
nz	-11.6791
▁Papua	-11.6792
▁108	-11.6794
ory	-11.6795
▁Kin	-11.6796
б	-11.6801
▁fi	-11.6802
▁Gold	-11.6807
▁Tara	-11.6808
▁kem	-11.681
kor	-11.6814
ngõ	-11.6815
64	-11.6815
pháo	-11.6815
iko	-11.6815
Truyền	-11.6816
▁Bành	-11.6818
▁Maha	-11.6818
▁xinh	-11.6822
▁Bò	-11.6822
iel	-11.6823
xanh	-11.6825
▁Than	-11.6826
khuất	-11.6827
▁Bruch	-11.6828
▁Sor	-11.683
mỏi	-11.6832
lùi	-11.6838
▁Jay	-11.684
▁Vin	-11.6842
å	-11.6846
▁Libya	-11.6847
▁Kolar	-11.6847
ines	-11.6848
▁Cờ	-11.6851
▁Thạc	-11.6854
hee	-11.6856
Song	-11.6856
trán	-11.6857
▁Sony	-11.6858
▁para	-11.6859
▁ngọt	-11.686
▁Tel	-11.6861
ati	-11.6861
ctor	-11.6861
▁Rhyacophila	-11.687
▁Donald	-11.6872
fil	-11.6873
huynh	-11.6879
▁Fall	-11.6882
its	-11.6883
spe	-11.6883
▁Schmidt	-11.6884
▁Aspleniaceae	-11.6885
õ	-11.6886
▁Justin	-11.6888
▁Franz	-11.6893
nch	-11.6894
▁Jura	-11.6895
hum	-11.6896
see	-11.6897
any	-11.6897
▁heo	-11.6897
▁Bánh	-11.6897
ography	-11.6901
ved	-11.6902
▁Up	-11.6902
▁Thelypteris	-11.6904
culus	-11.6904
ST	-11.6909
caulis	-11.6911
▁Robin	-11.6912
▁Erica	-11.6913
ith	-11.6913
cell	-11.6913
▁Apo	-11.6914
▁Diêm	-11.6915
Tứ	-11.6916
palli	-11.6917
sberg	-11.692
vn	-11.6927
International	-11.6928
bọc	-11.6932
SP	-11.6933
lội	-11.6933
hin	-11.6934
hầm	-11.6935
oe	-11.6935
worth	-11.6937
▁UBND	-11.6937
▁Abu	-11.694
iceps	-11.6944
▁Bos	-11.6946
trơn	-11.6949
ery	-11.6951
eck	-11.6952
▁tẩy	-11.6952
▁Cou	-11.6953
▁Global	-11.6958
▁flavi	-11.6958
khoáng	-11.6961
▁Ec	-11.6962
▁Py	-11.6962
dio	-11.6967
nt	-11.697
vir	-11.6977
onis	-11.6978
▁Cactaceae	-11.6981
▁rỗng	-11.6982
gie	-11.6982
▁Ré	-11.6983
▁đèo	-11.6984
Nhất	-11.6985
▁Sci	-11.6992
Nga	-11.6993
nium	-11.6993
Wa	-11.6994
▁trần	-11.6997
08	-11.6997
Sha	-11.6998
Corporation	-11.7
▁Mei	-11.7002
▁1856	-11.7003
wil	-11.7004
▁Lepanthes	-11.7005
▁Perry	-11.7005
▁Rheinland	-11.7006
nel	-11.7013
▁chùm	-11.7015
bet	-11.7016
▁Bangladesh	-11.702
▁tồi	-11.7021
▁Bước	-11.7023
▁chèo	-11.7025
▁thói	-11.7025
chua	-11.7026
linea	-11.7028
bara	-11.7029
iger	-11.7034
SC	-11.7034
▁Colorado	-11.7034
▁Slovakia	-11.7035
gắn	-11.7041
ám	-11.7042
Thiết	-11.7048
ations	-11.7048
Tuyền	-11.705
vằn	-11.705
▁Tru	-11.705
▁Pon	-11.7051
▁funet	-11.7054
pr	-11.7057
Brown	-11.7059
wing	-11.7059
▁Gracillariidae	-11.7059
montana	-11.706
dày	-11.706
dula	-11.706
Review	-11.7063
▁sủng	-11.7065
mega	-11.7067
▁melano	-11.7069
42	-11.7071
crypt	-11.7073
▁109	-11.7074
▁hit	-11.7077
▁Jacques	-11.7078
tera	-11.7081
Siêu	-11.7083
▁par	-11.7083
▁Queensland	-11.7084
bil	-11.7084
▁Ober	-11.7087
▁làn	-11.7089
ido	-11.7093
rubri	-11.7094
▁See	-11.7094
▁Trẻ	-11.7096
▁giật	-11.7099
ridgeon	-11.7099
▁Ortho	-11.7102
▁Fre	-11.7102
flu	-11.7102
IN	-11.7106
kaya	-11.7108
họp	-11.7111
lae	-11.7112
cae	-11.7113
Nữ	-11.7116
hom	-11.7122
▁Lawrence	-11.7125
▁Sand	-11.7126
▁Franklin	-11.7128
▁sọ	-11.7131
▁Ngành	-11.7133
vers	-11.7133
▁Cass	-11.7133
▁pre	-11.7133
House	-11.7134
▁Pyr	-11.7136
▁Tinh	-11.7142
eae	-11.7142
▁Luis	-11.7148
marginata	-11.7151
cc	-11.7152
▁Dũng	-11.7152
▁nồi	-11.7153
▁Trùng	-11.7155
Studios	-11.7163
▁Áp	-11.7164
▁Giờ	-11.7164
▁Dầu	-11.7171
ulum	-11.7171
Thao	-11.7171
cht	-11.7172
nang	-11.7173
▁Micr	-11.7175
censis	-11.7175
▁Ân	-11.718
▁Has	-11.7183
html	-11.7184
▁phơi	-11.7184
duy	-11.7186
▁rắc	-11.7187
ishi	-11.7189
▁bẫy	-11.7192
▁Copel	-11.7195
▁history	-11.7199
1,3	-11.7201
Niên	-11.7202
▁dã	-11.7204
▁Giấy	-11.7207
▁Côte	-11.7208
lánh	-11.7213
ần	-11.7213
▁Mỏ	-11.7213
cai	-11.7215
▁Quercus	-11.7216
▁Tọa	-11.7216
Tra	-11.7219
press	-11.7222
▁Cory	-11.7222
▁Sultan	-11.7225
▁Schleswig	-11.7226
Star	-11.7227
Za	-11.7229
▁Mah	-11.7236
fen	-11.7237
▁Malta	-11.7238
1,6	-11.7242
Ham	-11.7246
▁Kat	-11.725
inter	-11.7251
cephala	-11.7254
neo	-11.7255
0,3	-11.7256
▁Vài	-11.7257
▁Pal	-11.7258
▁Diệm	-11.7258
rom	-11.726
▁Tetragnatha	-11.7261
▁Rừng	-11.7262
uchi	-11.7268
edu	-11.7271
oxit	-11.7275
kes	-11.7281
BA	-11.7284
liên	-11.7288
▁Philadelphia	-11.7291
trù	-11.7296
▁His	-11.7298
▁cor	-11.7299
▁rìa	-11.7301
▁ru	-11.7302
▁VI	-11.7303
LA	-11.7306
della	-11.7306
▁Myanma	-11.7309
gam	-11.7313
Valley	-11.7317
▁Queen	-11.7318
▁Anthony	-11.7321
otis	-11.7327
▁radio	-11.7327
▁Alexandria	-11.7328
▁Ama	-11.7329
Phụ	-11.7333
ista	-11.7336
▁Salvia	-11.7337
▁Thuốc	-11.7337
▁quadri	-11.7339
ative	-11.7341
▁cồn	-11.7343
▁Bé	-11.7349
Trưởng	-11.7349
iêu	-11.7353
▁khuếch	-11.7354
Sách	-11.7356
▁102	-11.7358
mannii	-11.7364
AC	-11.7364
м	-11.7366
truất	-11.7367
iso	-11.7367
Univ	-11.7369
lối	-11.7369
cô	-11.737
▁Mes	-11.7373
CT	-11.7376
▁Chẳng	-11.7377
75	-11.7379
collis	-11.7381
▁Dream	-11.7383
ễ	-11.7385
▁Bun	-11.7386
ave	-11.7386
▁Nintendo	-11.7386
▁Hand	-11.7389
▁Linux	-11.739
▁Sten	-11.7392
dentata	-11.7393
▁Trạm	-11.7393
dos	-11.7395
▁Cara	-11.7396
chay	-11.7396
Giêsu	-11.7397
▁Johann	-11.7398
ết	-11.7398
▁С	-11.7399
data	-11.7399
Bur	-11.7399
Music	-11.7401
▁Francisco	-11.7402
▁Euxoa	-11.7402
nigro	-11.7402
▁râu	-11.7402
SS	-11.7403
ồi	-11.7405
Bra	-11.7405
poda	-11.7411
▁Palomar	-11.7412
ped	-11.7414
ới	-11.7415
ère	-11.7416
gỗ	-11.7416
▁Fred	-11.7417
▁it	-11.7419
▁Mèo	-11.7419
TS	-11.7421
myr	-11.7422
bry	-11.7424
▁Back	-11.7428
fus	-11.7436
Edition	-11.7436
sina	-11.7441
▁Vir	-11.7442
▁Cel	-11.7443
▁Estonia	-11.7443
▁inter	-11.7446
imp	-11.7446
▁mini	-11.7448
hé	-11.745
gro	-11.7451
▁Kol	-11.7451
vết	-11.7452
▁Trở	-11.7458
▁Kawa	-11.746
etta	-11.7464
▁Lĩnh	-11.7466
▁lãi	-11.7468
mac	-11.7469
tei	-11.747
▁đắp	-11.747
tov	-11.7471
gio	-11.7472
phím	-11.7477
▁Ot	-11.7483
lun	-11.7483
rug	-11.7487
▁trưa	-11.7488
AD	-11.7489
▁Fort	-11.749
ope	-11.7494
▁Hãn	-11.7498
bru	-11.7499
▁Cư	-11.7499
▁Wil	-11.75
rium	-11.7501
heo	-11.7502
anthes	-11.7504
▁Allium	-11.7505
▁1843	-11.7508
▁Lệ	-11.7511
roi	-11.7512
▁Molophilus	-11.7514
info	-11.7514
Awards	-11.7515
hẹp	-11.7515
Works	-11.7515
Hall	-11.7524
bella	-11.7526
Williams	-11.7527
▁Bangalore	-11.7529
▁Yemen	-11.7531
gger	-11.7533
reg	-11.7534
đón	-11.7535
ifrons	-11.7535
▁information	-11.7536
▁Dragon	-11.7536
giềng	-11.754
▁Stelis	-11.7541
▁1847	-11.7541
▁Boy	-11.7543
ngạn	-11.7544
nhục	-11.7544
sâm	-11.7546
▁uốn	-11.7546
▁Thọ	-11.7548
▁Das	-11.755
ér	-11.7553
1,8	-11.7555
Rico	-11.7556
AL	-11.756
▁Mk	-11.7562
▁Mối	-11.7562
trich	-11.7563
Vọng	-11.7565
oz	-11.7567
vittata	-11.7568
2,4	-11.7568
ulatus	-11.7569
rella	-11.7571
▁2019	-11.7573
similis	-11.7577
ug	-11.7581
aire	-11.7581
▁natri	-11.7583
ß	-11.7584
▁Standl	-11.7584
rác	-11.7586
sea	-11.759
rr	-11.7593
▁op	-11.7594
▁rậm	-11.7596
lành	-11.7596
▁lấp	-11.7601
▁Lau	-11.7601
▁Khúc	-11.7606
▁River	-11.7606
Vệ	-11.7606
Ah	-11.7606
ăm	-11.7607
▁Urb	-11.7608
acu	-11.7612
▁Thạnh	-11.7613
▁1842	-11.7614
▁Bird	-11.7614
fic	-11.7616
NA	-11.7617
pos	-11.762
▁Leptoceridae	-11.7621
Shi	-11.7621
lik	-11.7621
Miếu	-11.7624
▁nhai	-11.7626
▁Blake	-11.7626
pallida	-11.7626
ings	-11.7628
ssus	-11.7629
▁Wild	-11.7629
▁Phyllo	-11.7631
won	-11.7632
hiro	-11.7635
▁Cyathea	-11.7637
ráp	-11.7637
kín	-11.7637
▁Engl	-11.764
▁Dền	-11.7641
▁Pers	-11.7644
▁Kazakhstan	-11.7644
anga	-11.7645
tỉnh	-11.7649
ão	-11.765
rufo	-11.7653
xuôi	-11.7653
nema	-11.7656
atri	-11.7659
▁chép	-11.7659
fre	-11.766
tìm	-11.766
▁Thôn	-11.7665
uka	-11.7666
rama	-11.7668
▁IX	-11.7671
pot	-11.7671
noides	-11.7672
▁lôi	-11.7673
phila	-11.7679
▁Rosa	-11.768
39	-11.7686
▁Battle	-11.7688
dina	-11.769
0,0	-11.7691
asa	-11.7692
▁Xung	-11.7694
▁chòm	-11.7695
▁Pont	-11.7696
vớt	-11.7696
1,4	-11.7698
▁Anderson	-11.7701
arm	-11.7702
rick	-11.7704
▁Matsu	-11.7707
ios	-11.7709
Beatles	-11.771
xis	-11.7713
thầu	-11.7714
rius	-11.7718
Library	-11.772
loma	-11.7722
aca	-11.7724
pachy	-11.7725
enne	-11.7727
Jones	-11.7728
▁350	-11.7729
Jong	-11.773
ẻ	-11.7733
ulo	-11.7735
Ngư	-11.7735
RA	-11.774
▁gãy	-11.7745
▁XVI	-11.7747
43	-11.7747
gs	-11.7751
Ministry	-11.7751
▁nigri	-11.7754
cara	-11.7755
51	-11.7758
Stone	-11.7759
▁Koch	-11.776
ẫn	-11.776
Studio	-11.7761
ảo	-11.7765
Thụ	-11.7767
ña	-11.7768
▁Horn	-11.7769
▁ISO	-11.7771
oba	-11.7773
▁Slav	-11.7775
▁Home	-11.7776
?	-11.7776
IA	-11.7778
card	-11.7779
0,6	-11.7779
igny	-11.778
ça	-11.778
▁her	-11.778
Lành	-11.7781
▁Ficus	-11.7785
xôi	-11.7792
Pictures	-11.7793
tics	-11.7794
ũ	-11.7797
BC	-11.78
▁Torino	-11.7805
Ph	-11.7806
nha	-11.7807
str	-11.7809
▁München	-11.7809
▁vảy	-11.781
urs	-11.7811
▁Solomon	-11.7814
ẽ	-11.7816
chrys	-11.7816
▁Lou	-11.7816
iga	-11.7819
▁NATO	-11.782
ệ	-11.782
▁Canh	-11.7821
color	-11.7821
CO	-11.7825
hoe	-11.7826
Thương	-11.7828
Collection	-11.783
▁1852	-11.7831
▁Holstein	-11.7836
hem	-11.7836
▁Met	-11.7837
▁Tú	-11.7837
act	-11.7838
chết	-11.7838
lộc	-11.7839
mala	-11.7841
cris	-11.7844
ost	-11.7845
▁Let	-11.7848
til	-11.785
giấu	-11.7852
▁Cross	-11.7853
vern	-11.7853
dou	-11.7853
ema	-11.7859
Guide	-11.7861
▁Hỗ	-11.7865
jar	-11.7866
▁Samuel	-11.7867
gió	-11.7868
nius	-11.7868
fasciatus	-11.7868
câu	-11.7869
▁Lượng	-11.7873
tặc	-11.7875
1,1	-11.7876
▁đà	-11.7876
▁1837	-11.7878
▁Dis	-11.788
già	-11.7882
oo	-11.7884
▁Gene	-11.7886
▁đỡ	-11.7888
Túc	-11.7888
meta	-11.7889
▁khử	-11.7892
▁WWE	-11.7895
issima	-11.7897
rừng	-11.7897
lton	-11.7899
cz	-11.79
▁Cla	-11.7902
г	-11.7904
▁Power	-11.7904
cke	-11.7905
mela	-11.7905
▁Fan	-11.7908
dé	-11.7909
▁Ple	-11.7913
West	-11.7913
sam	-11.7914
gìn	-11.7916
és	-11.7917
leuc	-11.7918
mái	-11.7918
Net	-11.7919
gil	-11.7919
gramma	-11.7919
nguyệt	-11.7922
cilia	-11.7924
quái	-11.7924
hông	-11.7925
Pu	-11.7927
horn	-11.7928
р	-11.7932
dow	-11.7934
▁Lợn	-11.7936
ập	-11.7937
gọn	-11.7938
stone	-11.7939
Mon	-11.7941
mae	-11.7943
▁cưỡng	-11.7951
Trà	-11.7951
▁Facebook	-11.7952
beck	-11.7953
▁mệt	-11.7955
Kha	-11.7955
aur	-11.7957
▁Eri	-11.7961
toides	-11.7961
yeon	-11.7966
▁Şanlıurfa	-11.7968
syn	-11.7969
Tần	-11.797
▁bồ	-11.7974
rita	-11.7975
amo	-11.7976
face	-11.7976
sara	-11.7977
▁Denis	-11.7979
▁Carol	-11.7985
ME	-11.7986
mid	-11.7989
52	-11.7989
Garden	-11.7991
▁Buck	-11.7991
▁Institut	-11.7991
trễ	-11.7993
enus	-11.7993
bey	-11.7995
▁Angola	-11.7996
0,4	-11.8002
tron	-11.8003
▁ớt	-11.8004
anna	-11.8005
▁tụ	-11.8011
▁Anthurium	-11.8011
mato	-11.8013
puncta	-11.8014
mbo	-11.8015
▁Xu	-11.8016
▁Bio	-11.8021
▁Phyllanthus	-11.8022
▁104	-11.8023
shan	-11.8024
▁Gua	-11.8025
lăng	-11.8026
▁Leuco	-11.8027
Rock	-11.8029
tiana	-11.8031
bai	-11.8032
2,3	-11.8033
xy	-11.8036
Company	-11.8038
aj	-11.804
▁Had	-11.8041
▁AS	-11.8042
Qu	-11.8042
▁Anton	-11.8043
95	-11.8044
ales	-11.8045
Woo	-11.8045
ES	-11.8047
▁Eo	-11.8048
rỡ	-11.8051
oso	-11.8054
ách	-11.8054
thám	-11.8058
pter	-11.8059
ngộ	-11.806
niger	-11.8061
▁Guide	-11.8063
gonia	-11.8064
khố	-11.8065
▁Yak	-11.8065
toria	-11.8067
▁Gordon	-11.807
cúng	-11.8072
▁Gla	-11.8072
lur	-11.8073
▁Ain	-11.8077
▁article	-11.8079
rot	-11.8079
emon	-11.8081
Tô	-11.8081
bối	-11.8082
▁Arn	-11.8083
▁Cat	-11.8086
▁Diêu	-11.8089
▁gán	-11.809
▁Kas	-11.809
▁hô	-11.809
▁1827	-11.8091
▁Ít	-11.8093
▁Fuji	-11.8099
chữ	-11.81
&	-11.8101
▁Peperomia	-11.8103
sci	-11.8104
lima	-11.8105
cincta	-11.8106
ispa	-11.8108
iss	-11.8108
▁Biệt	-11.8109
tóc	-11.8111
dối	-11.8111
62	-11.8112
cảng	-11.8114
▁1824	-11.8119
obi	-11.8122
▁Kích	-11.8123
multi	-11.8124
▁Who	-11.8124
▁Cribb	-11.8125
Swe	-11.8127
▁canxi	-11.8129
▁Cameroon	-11.813
5,5	-11.8132
saurus	-11.8136
▁Ō	-11.8137
1,7	-11.8138
▁Mới	-11.8139
giam	-11.814
thẩm	-11.8142
ượng	-11.8142
life	-11.8144
rổ	-11.8147
chon	-11.8148
AI	-11.8149
▁bar	-11.815
▁sương	-11.8151
▁chặng	-11.8152
▁Steven	-11.8152
khởi	-11.8152
tiểu	-11.8153
▁Sant	-11.8155
▁Len	-11.8157
ngục	-11.8158
▁cáp	-11.8159
xô	-11.8159
rt	-11.816
▁nhôm	-11.816
ū	-11.8161
isi	-11.8165
sur	-11.8166
▁Ann	-11.8167
ado	-11.8167
ỏi	-11.8168
dịu	-11.8169
stic	-11.8169
▁152	-11.8171
oko	-11.8171
▁Second	-11.8172
affinis	-11.8174
▁xăng	-11.8175
yne	-11.8178
mắm	-11.8181
Diên	-11.8184
CC	-11.8189
▁Afro	-11.819
▁Xứ	-11.8191
anthe	-11.8192
▁ion	-11.8197
bì	-11.8199
tua	-11.82
▁Book	-11.8201
▁giường	-11.8201
▁MC	-11.8201
▁Reg	-11.8202
Danh	-11.8202
yuki	-11.8203
▁Cận	-11.8203
bạch	-11.8203
mod	-11.8205
▁Genera	-11.8206
ấy	-11.8206
▁Sicilia	-11.8206
zii	-11.8208
▁Watson	-11.8212
sau	-11.8219
Nguyệt	-11.8223
▁Nebraska	-11.8223
Lôi	-11.8224
khiết	-11.8226
Wars	-11.8226
▁Sứ	-11.8232
▁Pteris	-11.8235
▁Ước	-11.8236
sit	-11.8237
vus	-11.8237
Spe	-11.8239
▁Yuri	-11.824
Giáp	-11.8245
▁Cis	-11.8245
▁Roy	-11.8246
rana	-11.8246
▁Kir	-11.8247
▁Homo	-11.825
esti	-11.8254
Black	-11.8255
Tòa	-11.8255
▁Elaphoglossum	-11.8256
bun	-11.826
giảng	-11.826
cilla	-11.8262
Club	-11.8262
▁đam	-11.8263
oria	-11.8264
▁1833	-11.8264
some	-11.8264
ping	-11.8268
uku	-11.827
ppe	-11.8273
bla	-11.8273
sburg	-11.8275
▁ngâm	-11.8276
aud	-11.8277
thor	-11.8278
▁Hạo	-11.828
▁Dasy	-11.828
BS	-11.8282
▁online	-11.8282
▁Diplo	-11.8282
nhã	-11.8282
trăng	-11.8284
rida	-11.8287
Đạt	-11.8287
ài	-11.8288
NS	-11.8291
disc	-11.8292
▁CO	-11.8292
eur	-11.8294
▁PlayStation	-11.8295
▁giấu	-11.8296
talis	-11.8296
▁Lư	-11.8297
mỡ	-11.8303
▁Entertainment	-11.8304
Championship	-11.8306
spinosa	-11.8306
▁Jam	-11.8308
2,2	-11.8309
media	-11.831
▁Solanum	-11.8311
hae	-11.8312
cina	-11.8313
▁Chiết	-11.8313
▁Cai	-11.8319
ware	-11.832
amba	-11.8323
58	-11.8328
Cung	-11.8329
ick	-11.8329
lem	-11.833
▁đun	-11.8331
pina	-11.8334
▁Maxim	-11.8337
clo	-11.8338
lor	-11.834
▁dồn	-11.8343
▁khống	-11.8346
scho	-11.8347
▁India	-11.8348
ior	-11.835
oga	-11.8354
ấp	-11.8355
▁mu	-11.8356
▁Bầu	-11.836
▁but	-11.8363
Maps	-11.8365
unda	-11.8368
ạc	-11.8368
thorax	-11.8372
▁Wei	-11.8373
jun	-11.8375
▁Mou	-11.8377
▁Arizona	-11.8378
▁Lưỡng	-11.8384
▁Buổ	-11.8388
▁Bernard	-11.839
lach	-11.8391
ě	-11.8392
▁Yama	-11.8393
▁Đăk	-11.8394
Ích	-11.8395
quay	-11.8396
TA	-11.8398
trắng	-11.8398
nỗi	-11.8398
▁rãnh	-11.84
phis	-11.8404
ostoma	-11.8406
tori	-11.8409
750	-11.8416
nghe	-11.8417
leuco	-11.8418
▁Vợ	-11.8419
▁Clark	-11.8422
▁Coleophora	-11.8423
khe	-11.8432
Em	-11.8432
▁Ant	-11.8433
▁Zimbabwe	-11.8434
▁Shah	-11.8435
ơi	-11.8437
calli	-11.8438
iye	-11.844
cl	-11.844
RS	-11.8441
tepe	-11.8443
cyan	-11.8444
England	-11.8445
hart	-11.8447
hm	-11.8447
morpha	-11.8448
▁Urban	-11.8449
Hựu	-11.845
▁1839	-11.8454
▁М	-11.846
▁Nhu	-11.8461
▁Uruguay	-11.8462
40	-11.8464
RI	-11.8466
▁AC	-11.8466
▁Map	-11.8477
jima	-11.8478
▁Bus	-11.8483
▁mono	-11.8485
mei	-11.8486
Khả	-11.8487
▁Kane	-11.8491
▁1855	-11.8491
61	-11.8493
ậm	-11.8495
▁Norfolk	-11.8495
▁Sierra	-11.8496
▁Sắc	-11.85
▁Madonna	-11.8501
glia	-11.8501
▁tắm	-11.8502
Thùy	-11.8502
▁Borneo	-11.8507
đắp	-11.851
▁Angel	-11.851
▁Champion	-11.851
▁Sphingidae	-11.8512
hashi	-11.8514
FA	-11.8516
▁euro	-11.8517
▁bận	-11.8518
▁Nằm	-11.852
▁cỗ	-11.8524
▁Mars	-11.8524
thal	-11.8524
hè	-11.8526
omorpha	-11.8527
rak	-11.8527
stria	-11.8535
▁Shaw	-11.8536
▁Nghiêm	-11.8539
omyia	-11.854
▁Film	-11.8542
Nhung	-11.8542
▁Mĩ	-11.8544
7,5	-11.8546
▁Hydropsychidae	-11.8546
Chinh	-11.8546
▁Anime	-11.855
noi	-11.8551
▁Lenin	-11.8551
▁au	-11.8551
▁Sơ	-11.8552
▁vu	-11.8553
▁kề	-11.8558
▁giãn	-11.8559
iformes	-11.8564
▁Archi	-11.8569
vẽ	-11.857
▁Melan	-11.8572
▁Nhiếp	-11.8572
Che	-11.8575
▁HCM	-11.8575
▁Ei	-11.8576
▁Clarke	-11.8577
lag	-11.8577
▁Western	-11.8581
ст	-11.8582
▁Shan	-11.8582
▁Mori	-11.8587
mầm	-11.8588
▁Hỏa	-11.859
▁States	-11.8591
▁Sharp	-11.8592
▁Thịt	-11.8595
▁Tìm	-11.8597
▁Kun	-11.8598
iva	-11.8601
▁VTV	-11.8602
ovi	-11.8605
ingen	-11.8607
▁hoạn	-11.8608
parvi	-11.8609
ọc	-11.861
▁ngụy	-11.8611
dum	-11.8611
ồ	-11.8612
nở	-11.8612
▁Oxyopes	-11.8615
▁play	-11.8615
lung	-11.8615
▁Tràng	-11.8615
evich	-11.8616
Viện	-11.8616
tuyết	-11.8617
▁Petro	-11.8617
▁Dio	-11.8619
▁Over	-11.8619
▁Tịnh	-11.8619
▁Ngọ	-11.8621
▁Cry	-11.8623
▁Cứ	-11.8626
český	-11.8626
idi	-11.8626
▁Yến	-11.8633
▁Gang	-11.8634
vet	-11.8635
▁Andrea	-11.8636
ủi	-11.8641
australis	-11.8643
▁Mir	-11.8645
America	-11.8646
▁Ryan	-11.8647
hòn	-11.8647
▁châm	-11.8647
lich	-11.8648
put	-11.8649
đoan	-11.865
Mul	-11.865
oti	-11.865
bén	-11.8651
▁Ichneumon	-11.8653
cala	-11.8658
▁Ton	-11.8658
▁Lyc	-11.8659
Or	-11.8661
▁111	-11.8662
bir	-11.8664
▁European	-11.8664
EA	-11.8666
Khương	-11.8666
Sematophyllaceae	-11.8666
nhược	-11.8672
eux	-11.8672
NC	-11.8677
▁Ia	-11.8678
▁Aga	-11.8679
mơ	-11.8684
▁Gil	-11.8685
mond	-11.8687
▁phụng	-11.8687
▁ngự	-11.8688
า	-11.8689
Tae	-11.869
▁Mario	-11.869
▁Hằng	-11.8691
▁Belle	-11.8692
bò	-11.8694
Han	-11.8695
▁Caesar	-11.8695
dactylus	-11.8696
▁Human	-11.8697
▁Gymno	-11.8699
chống	-11.8699
water	-11.8701
punctatus	-11.8702
hai	-11.8705
cửu	-11.8707
ạo	-11.8708
▁1832	-11.871
folia	-11.8714
80	-11.8714
tto	-11.8717
Rchb	-11.8724
pta	-11.8725
sio	-11.8725
▁lệch	-11.8727
▁Wo	-11.873
▁CA	-11.8732
anth	-11.8733
chấn	-11.8735
▁national	-11.8735
get	-11.8738
main	-11.874
▁gene	-11.8744
▁đếm	-11.8746
▁Rh	-11.8746
▁Cyatheaceae	-11.8747
Service	-11.8748
tung	-11.8749
ON	-11.8749
folium	-11.8749
thes	-11.8749
mỹ	-11.8751
ptil	-11.8754
▁Hon	-11.8756
Pre	-11.8756
▁thấm	-11.8759
eiro	-11.876
▁McC	-11.8762
dom	-11.8762
▁Dol	-11.8765
Fi	-11.8766
ы	-11.8766
uc	-11.8767
etto	-11.8768
▁Muhammad	-11.8769
Bưu	-11.8769
ào	-11.877
▁Fra	-11.877
Nhai	-11.8771
▁Golden	-11.8771
▁sẫm	-11.8772
2,8	-11.8773
▁CIA	-11.8776
▁chiết	-11.8776
▁1834	-11.8777
cru	-11.8778
▁Mara	-11.8779
2,6	-11.8781
spi	-11.8782
llus	-11.8784
MB	-11.8787
▁Tế	-11.879
rơi	-11.879
▁Jason	-11.8791
▁Grant	-11.8791
▁Manga	-11.8791
▁Ferdinand	-11.8793
Beach	-11.8793
SO	-11.8794
khiếu	-11.8797
Up	-11.8801
ough	-11.8801
▁Myrmeleont	-11.8801
▁Conidae	-11.8802
▁đục	-11.8802
Out	-11.8803
gens	-11.8804
▁Allo	-11.8805
▁Modern	-11.8805
▁Patrick	-11.8805
plan	-11.8806
gana	-11.8807
▁Ry	-11.8807
▁tóm	-11.8807
▁chọc	-11.8812
▁Miya	-11.8817
đạc	-11.8817
core	-11.8819
▁Acanth	-11.882
tránh	-11.8822
lept	-11.8823
rion	-11.8824
▁Mass	-11.8825
vit	-11.8828
▁dọn	-11.8828
▁Sankt	-11.8829
▁nắp	-11.8829
atsu	-11.883
News	-11.883
▁Lối	-11.883
ID	-11.8831
▁Intel	-11.8831
quadri	-11.8833
▁Trực	-11.8835
thục	-11.8835
▁Stu	-11.8836
aci	-11.8838
rest	-11.8842
▁thọ	-11.8843
htm	-11.8844
bức	-11.8844
Nhã	-11.8845
Boys	-11.885
▁béo	-11.8851
▁Pala	-11.8851
Kỷ	-11.8853
khiếp	-11.8856
Potter	-11.8857
▁School	-11.886
oda	-11.886
Heart	-11.886
▁Rus	-11.8862
Hymenophyllaceae	-11.8863
▁mar	-11.8865
▁roi	-11.8866
Cập	-11.8868
▁HD	-11.8869
▁Kịch	-11.887
notata	-11.8871
▁Maroc	-11.8873
Ab	-11.8873
Whit	-11.888
▁Caribe	-11.8881
SL	-11.8883
▁Jaeger	-11.8887
▁Suối	-11.8887
▁128	-11.8887
etus	-11.8889
vy	-11.8891
đuối	-11.8892
▁Cardiophorus	-11.8892
ắn	-11.8896
Giá	-11.8899
▁tạ	-11.8899
▁107	-11.8903
ối	-11.8904
▁Tùng	-11.8905
nalis	-11.8905
Muell	-11.8908
uru	-11.8909
mata	-11.891
▁Bretagne	-11.891
khả	-11.8912
на	-11.8913
acantha	-11.8913
VN	-11.8916
bury	-11.8916
▁Sivas	-11.8917
dr	-11.8917
inensis	-11.8917
▁Walker	-11.8918
Maria	-11.8921
▁Leo	-11.8923
Đa	-11.8926
nn	-11.893
▁115	-11.8931
▁ướp	-11.8933
▁Thật	-11.8934
kẽ	-11.8936
vre	-11.8936
cık	-11.8937
▁carbon	-11.894
Par	-11.8941
▁Ross	-11.8943
xí	-11.8944
▁Ardisia	-11.8945
▁robot	-11.8946
CH	-11.8949
▁Dây	-11.8949
dời	-11.895
6,5	-11.895
▁Doraemon	-11.8951
gắt	-11.8953
tions	-11.8957
▁Bướm	-11.8957
nigri	-11.896
▁Tuân	-11.8961
▁Adolf	-11.8963
ological	-11.8963
▁chua	-11.8969
AF	-11.897
kka	-11.8974
▁That	-11.8979
rạch	-11.8984
Điệp	-11.8987
▁Dãy	-11.8987
Chiếu	-11.8988
tric	-11.8988
▁Ob	-11.899
ld	-11.8994
▁set	-11.8995
▁Baden	-11.9
Đồn	-11.9002
Miên	-11.9004
tten	-11.9007
▁Jerusalem	-11.9007
ưng	-11.901
kur	-11.9011
mù	-11.9011
mail	-11.9012
nát	-11.9016
▁clo	-11.9016
odont	-11.9019
▁Đoan	-11.9022
▁Company	-11.9023
▁Duyên	-11.9023
▁Ball	-11.9023
▁Ralph	-11.9028
ра	-11.9032
Kì	-11.9033
ffi	-11.9033
▁Geo	-11.9034
Hào	-11.9034
▁mau	-11.9035
Hyun	-11.9037
Cáp	-11.9037
gate	-11.9039
▁Dữ	-11.9039
▁Silva	-11.904
đáp	-11.9041
ush	-11.9041
▁Type	-11.9042
▁Sarah	-11.9045
▁Project	-11.9048
Mor	-11.9048
▁vang	-11.905
yon	-11.905
gard	-11.9052
▁phà	-11.9053
▁Miller	-11.9055
▁Ôn	-11.9058
▁Ixora	-11.9058
lab	-11.9059
▁mép	-11.9059
Ju	-11.906
Ôn	-11.9061
ầy	-11.9063
thuốc	-11.9063
ên	-11.9066
Thuần	-11.9067
place	-11.907
app	-11.9071
▁ngộ	-11.9073
▁Rồi	-11.9073
▁Đàn	-11.9076
Bridge	-11.9076
miệng	-11.9078
▁bu	-11.9079
▁Research	-11.9083
tax	-11.9084
▁giếng	-11.9088
ED	-11.9088
En	-11.909
bank	-11.9091
▁Cour	-11.9092
▁Central	-11.9093
▁Tennessee	-11.9094
để	-11.9096
lou	-11.9097
assi	-11.9098
▁Four	-11.91
omma	-11.9101
sed	-11.9105
▁Av	-11.9105
▁Slovenia	-11.9106
orientalis	-11.9106
heli	-11.9107
Il	-11.9108
obscura	-11.9112
▁Biện	-11.9112
▁Rạch	-11.9113
grad	-11.9114
Dụng	-11.9115
▁thạc	-11.9116
ison	-11.9117
pers	-11.9117
▁Wikipedia	-11.9118
▁Engel	-11.912
zza	-11.9121
oto	-11.9123
▁chuồng	-11.9124
▁Mez	-11.9125
ute	-11.9126
▁Trúc	-11.9126
▁Bột	-11.9127
Magazine	-11.913
phả	-11.9132
▁Galaxy	-11.9133
tràng	-11.9134
▁Ghana	-11.9136
▁Habenaria	-11.9136
▁Pays	-11.914
▁Thuyền	-11.9149
etia	-11.9149
plex	-11.9152
▁EU	-11.9158
Baby	-11.9159
▁Main	-11.916
pid	-11.916
▁Southern	-11.916
telli	-11.9161
ophorus	-11.9162
▁Lopho	-11.9164
iro	-11.9164
▁Agrypnus	-11.9166
pop	-11.9169
▁Mikhail	-11.917
nhàng	-11.917
▁220	-11.917
▁Mê	-11.9174
bong	-11.9175
▁1825	-11.9177
inella	-11.9179
chừng	-11.9181
▁ngạc	-11.9181
▁mê	-11.9181
kí	-11.9184
▁Pokémon	-11.9184
ilis	-11.9185
Division	-11.9187
▁Ian	-11.9187
▁Guatemala	-11.919
hir	-11.9191
argent	-11.9191
call	-11.9191
▁laser	-11.9191
Report	-11.9195
sca	-11.9196
Tham	-11.9196
▁Raymond	-11.9196
▁Digital	-11.9197
Gri	-11.9206
▁thính	-11.9208
▁ngưỡng	-11.9209
page	-11.921
▁rung	-11.9211
▁dập	-11.9216
з	-11.9216
ẹ	-11.9216
▁Vis	-11.922
▁Rasmussen	-11.922
nidae	-11.9221
ike	-11.9223
▁Sudan	-11.9224
▁Newton	-11.9225
pera	-11.9225
▁Heinrich	-11.9226
mẻ	-11.9227
▁kali	-11.9229
▁mac	-11.9231
xen	-11.9235
▁xi	-11.9241
▁Uy	-11.9242
▁Lei	-11.9243
▁Pedro	-11.9245
Phục	-11.9248
thiếu	-11.9248
Tồn	-11.9249
MG	-11.925
▁Sala	-11.9251
ugh	-11.9253
▁Pseud	-11.9255
ỡ	-11.9255
▁Milano	-11.9257
sét	-11.926
tàn	-11.9262
ign	-11.9263
fusco	-11.9265
▁bồn	-11.9267
Nu	-11.9268
▁nghiện	-11.9269
lini	-11.9271
▁Kur	-11.9272
▁Frullania	-11.9275
▁vitamin	-11.9275
▁Brunei	-11.9275
east	-11.9277
flavi	-11.9279
neu	-11.9279
▁103	-11.9281
rubi	-11.9281
Moth	-11.9282
▁900	-11.9282
Sâm	-11.9285
▁Marcel	-11.9285
900	-11.9285
phẫu	-11.9286
film	-11.9289
và	-11.9293
aka	-11.9294
TR	-11.9294
▁Mất	-11.9301
▁Non	-11.9301
▁Kiev	-11.9302
ớt	-11.9303
▁Fran	-11.9303
Đồ	-11.9304
▁1,2	-11.9304
▁Napoleon	-11.9306
▁hoài	-11.9306
▁Lip	-11.9307
▁With	-11.9307
GB	-11.9307
▁Thức	-11.9307
▁Vas	-11.9309
▁giun	-11.9309
rah	-11.931
▁Stone	-11.931
ical	-11.9312
▁đan	-11.9312
ocephalus	-11.9316
sign	-11.9316
quét	-11.9316
bê	-11.9316
tō	-11.9317
▁ghé	-11.9318
angensis	-11.932
Lam	-11.9321
khuyết	-11.9321
▁Mill	-11.9323
illus	-11.9324
▁Thiểm	-11.9328
ừ	-11.9328
rub	-11.9328
▁Dark	-11.933
▁NĐ	-11.9333
ote	-11.9334
stoma	-11.9335
▁Tóm	-11.9336
▁Thiện	-11.934
Hảo	-11.9341
dang	-11.9342
leutherodactylus	-11.9342
▁Muricidae	-11.9342
▁niêm	-11.9343
▁127	-11.9343
▁Mali	-11.9343
▁comune	-11.9344
som	-11.9344
▁Society	-11.9346
dol	-11.9347
▁Howard	-11.9348
Express	-11.9349
FF	-11.935
▁Gừng	-11.935
▁Lindl	-11.9354
▁Anthicidae	-11.9355
basi	-11.9356
▁Phải	-11.9356
Lão	-11.9359
▁Empire	-11.936
lev	-11.9361
▁Get	-11.9362
under	-11.9368
AA	-11.9372
Trực	-11.9373
zin	-11.9373
ssen	-11.9373
▁edition	-11.9373
▁135	-11.9375
dl	-11.9375
miya	-11.9377
▁Wind	-11.9377
dem	-11.9379
Lịch	-11.938
▁khinh	-11.9383
▁Water	-11.9385
▁Pil	-11.9385
lăn	-11.9385
▁Guadalcanal	-11.9385
▁rực	-11.9386
▁Tốt	-11.9387
▁Yan	-11.939
▁Rou	-11.939
▁Pterolophia	-11.9391
viridis	-11.9395
ière	-11.9395
▁gối	-11.9396
Nghệ	-11.9396
▁Guam	-11.9397
▁Lombardia	-11.9398
kiều	-11.94
spec	-11.94
ete	-11.94
▁gả	-11.9403
▁frazion	-11.9404
▁Leyte	-11.9404
lash	-11.9405
▁Trưng	-11.9405
ẹt	-11.9406
▁sút	-11.9406
MC	-11.9408
ode	-11.941
densis	-11.9411
hypo	-11.9412
lata	-11.9417
serv	-11.9417
▁Pitman	-11.9417
luc	-11.9418
isse	-11.942
▁chút	-11.9421
▁Tiger	-11.9423
aeus	-11.9423
cken	-11.9423
mensis	-11.9425
onii	-11.9426
▁Kurt	-11.943
tata	-11.943
▁Marx	-11.9431
cup	-11.9436
▁Xi	-11.9438
rn	-11.9439
▁Heart	-11.944
simplex	-11.9441
hui	-11.9442
▁Girls	-11.9442
sup	-11.9443
▁Qa	-11.9445
▁Niên	-11.9446
jer	-11.9446
▁lạp	-11.9447
▁1800	-11.9448
▁3000	-11.9452
α	-11.9453
▁Manila	-11.9456
▁axít	-11.9457
group	-11.946
test	-11.946
punct	-11.9464
▁Calvados	-11.9466
▁quặng	-11.9466
▁Lũng	-11.947
GA	-11.9475
▁Lô	-11.9476
▁Diospyros	-11.9478
law	-11.9478
▁Barbara	-11.9479
sạch	-11.9481
PT	-11.9482
▁Pandanus	-11.9485
signata	-11.9488
▁DJ	-11.9488
▁IP	-11.9489
Lee	-11.9489
gne	-11.9489
tầm	-11.949
▁Camponotus	-11.9491
▁Apollo	-11.9491
ngặt	-11.9492
▁Đàng	-11.9493
Fair	-11.9494
▁oanh	-11.9499
▁Morgan	-11.9499
▁Tol	-11.95
▁Light	-11.95
cen	-11.95
▁Encyclopedia	-11.9508
lax	-11.9509
▁Tín	-11.951
ash	-11.9511
source	-11.9514
nning	-11.9515
elii	-11.9515
RNA	-11.9517
sút	-11.9518
2,9	-11.9518
ym	-11.9522
▁Lấy	-11.9525
Kre	-11.9528
striata	-11.9528
brachy	-11.9528
sỹ	-11.9531
Dịch	-11.9534
nham	-11.9538
▁Lea	-11.9544
nana	-11.9545
▁Got	-11.9546
ili	-11.9547
▁Cuồng	-11.9551
Gr	-11.9553
▁thoải	-11.9553
ual	-11.9554
Đệ	-11.9555
▁Lucas	-11.9559
ạt	-11.956
▁brachy	-11.9563
Model	-11.9563
▁Ferr	-11.9565
▁ÂL	-11.9566
Thăng	-11.9571
Mal	-11.9571
ornis	-11.9571
▁Georges	-11.9573
fascia	-11.9574
etz	-11.9575
▁>	-11.9577
cẩu	-11.9581
SV	-11.9581
lü	-11.9584
▁Chrysopidae	-11.9585
▁Tamil	-11.9585
tier	-11.9588
▁Two	-11.9593
▁Tal	-11.9594
lee	-11.9597
duyên	-11.9601
▁rước	-11.9601
▁mõm	-11.9603
rũ	-11.9609
▁mạo	-11.9609
▁Moselle	-11.961
▁Mos	-11.961
uel	-11.9611
Night	-11.9611
▁Fla	-11.9613
▁Gran	-11.9614
▁Indigofera	-11.9616
▁Hermann	-11.9619
▁Marcus	-11.962
chị	-11.962
yết	-11.962
▁Cù	-11.9621
mber	-11.9624
dây	-11.9625
▁More	-11.9628
▁Fel	-11.9629
sius	-11.9631
tráng	-11.9633
▁off	-11.9633
sche	-11.9633
dro	-11.9634
iti	-11.9635
▁ad	-11.9635
▁Xeno	-11.9635
sơn	-11.9639
mbe	-11.964
▁thưa	-11.9643
▁Amy	-11.9644
ude	-11.9647
essa	-11.9649
cụt	-11.9656
▁106	-11.9656
▁nhắn	-11.9661
iferum	-11.9665
rell	-11.9665
▁tro	-11.9667
▁Selaginella	-11.9673
Lãnh	-11.9673
Time	-11.9673
say	-11.9674
▁Lão	-11.9676
mph	-11.9678
lak	-11.968
dea	-11.968
▁Dy	-11.9685
chai	-11.9685
▁Orchidacearum	-11.9686
Ký	-11.9688
▁bicolor	-11.9689
rik	-11.9689
nami	-11.969
▁Hell	-11.9696
morph	-11.9697
mica	-11.9698
▁Lyon	-11.9698
▁Sainte	-11.9699
▁all	-11.9699
nau	-11.97
Knight	-11.9702
Nhuận	-11.9705
boy	-11.9707
▁Xương	-11.9708
udi	-11.9708
▁Asian	-11.9709
▁Turner	-11.9711
rồng	-11.9711
pto	-11.9712
▁Jr	-11.9712
Sun	-11.9713
▁Thơ	-11.9718
lựa	-11.9719
▁Aleyrod	-11.9723
▁Rhynchit	-11.9725
rỉ	-11.9727
RO	-11.9728
▁Agri	-11.9728
▁Oise	-11.9729
rre	-11.9733
▁Seo	-11.9733
▁Schi	-11.9736
vân	-11.9737
▁khéo	-11.9737
Dư	-11.9737
tation	-11.9739
apo	-11.9739
Đoàn	-11.974
arum	-11.9741
òng	-11.9744
▁Online	-11.9744
▁Qui	-11.9746
tani	-11.9746
▁Bert	-11.9746
▁Hypnum	-11.9746
▁giang	-11.975
type	-11.9751
▁Championship	-11.9756
▁Jamaica	-11.9756
▁There	-11.9757
▁Mach	-11.976
Boy	-11.9761
hăng	-11.9764
cten	-11.977
osia	-11.9771
3,2	-11.9771
Andre	-11.9772
▁quấy	-11.9775
box	-11.9777
▁Bia	-11.9777
370	-11.9779
▁Scincidae	-11.9781
▁gộp	-11.9781
▁Hát	-11.9782
▁Down	-11.9782
▁Gale	-11.9784
erd	-11.9787
avi	-11.9788
▁Aleyrodidae	-11.9789
▁Pot	-11.979
rup	-11.9791
gri	-11.9792
Lễ	-11.9793
▁Cống	-11.9794
lock	-11.9796
▁Dàn	-11.9797
toma	-11.98
tium	-11.98
▁Kyoto	-11.9801
phiệt	-11.9802
Cooper	-11.9803
Men	-11.9804
lob	-11.9804
hira	-11.9807
▁SM	-11.9807
▁Thậm	-11.9807
Aviation	-11.9809
ingham	-11.981
lena	-11.9811
dell	-11.9811
▁Mak	-11.9812
Soo	-11.9812
đùa	-11.9814
▁đợi	-11.9815
Phật	-11.9815
Publications	-11.9816
▁Ngự	-11.9817
rii	-11.9819
ast	-11.982
▁Endomychidae	-11.982
Quỳ	-11.9826
▁Eilema	-11.9826
▁novel	-11.983
olepis	-11.983
▁Barb	-11.9834
hang	-11.9837
flava	-11.9838
lt	-11.9839
gos	-11.984
▁1828	-11.9843
witz	-11.9844
ffer	-11.9845
Hằng	-11.9846
Duyệt	-11.9847
châm	-11.9847
oul	-11.9851
▁Bala	-11.9851
Shin	-11.9851
Khôi	-11.9852
▁bế	-11.9853
agi	-11.9854
▁flavo	-11.9855
▁Tái	-11.9855
▁SP	-11.9858
canh	-11.9859
carpus	-11.9861
rand	-11.9865
cosa	-11.9866
▁lati	-11.9867
▁Philippe	-11.9869
ort	-11.9869
▁Prince	-11.987
khốc	-11.987
▁Set	-11.9872
IF	-11.9873
IT	-11.9875
▁Kei	-11.9878
▁1831	-11.988
▁chì	-11.988
chày	-11.988
▁Ok	-11.9882
craft	-11.9883
▁khép	-11.9885
▁khoai	-11.9886
èo	-11.9886
▁Just	-11.9887
▁Series	-11.9887
▁their	-11.9889
▁Stuttgart	-11.9891
Eun	-11.9892
FC	-11.9892
phen	-11.9893
▁Pros	-11.9893
Grove	-11.9899
Đàn	-11.9899
vier	-11.99
Evans	-11.99
▁Union	-11.99
Mộng	-11.9902
Rồng	-11.9902
Yong	-11.9903
Roosevelt	-11.9904
▁Claude	-11.9905
▁Ep	-11.9905
▁nếp	-11.9905
ót	-11.991
▁Lên	-11.9914
▁Monolepta	-11.9917
▁Babylon	-11.9918
Tát	-11.9918
Val	-11.9919
Luận	-11.9919
Jae	-11.9919
Amb	-11.992
▁Mis	-11.9921
yō	-11.9922
▁Dys	-11.9923
cles	-11.9924
minut	-11.9925
rill	-11.9926
đỉnh	-11.9929
đởm	-11.993
▁Philodromus	-11.993
▁Agrotis	-11.993
▁Petr	-11.9931
Rain	-11.9934
ร	-11.9936
osi	-11.9937
lị	-11.9938
Murray	-11.9939
gang	-11.9941
Luther	-11.9942
▁Commune	-11.9943
▁un	-11.9943
▁Giuse	-11.9945
▁gay	-11.9945
Mục	-11.9945
2,1	-11.9946
tân	-11.9946
Jin	-11.9948
nicus	-11.9951
Wild	-11.9952
aff	-11.9961
▁Cán	-11.9961
▁Manuel	-11.9963
▁Dru	-11.9966
▁Aden	-11.9968
▁Om	-11.9969
teen	-11.9971
wai	-11.9974
illon	-11.9975
▁Dần	-11.9979
▁Catherine	-11.9982
▁Vriesea	-11.9982
Ngũ	-11.9982
uan	-11.9987
thự	-11.9989
ören	-11.9989
▁Santiago	-11.9989
ophilus	-11.9989
River	-11.9993
▁Next	-11.9993
▁Mini	-11.9994
▁Ford	-11.9994
▁Georg	-11.9994
huỳnh	-11.9995
▁Dysdera	-11.9995
▁Krym	-11.9998
uki	-11.9998
Hiếu	-11.9998
igne	-12.0001
▁Azerbaijan	-12.0002
▁ôxy	-12.0002
▁Panzer	-12.0003
▁Vatican	-12.0003
Won	-12.0003
▁Castel	-12.0006
rê	-12.0012
há	-12.0013
öl	-12.0014
inii	-12.0014
▁thề	-12.0014
▁cối	-12.0015
quê	-12.0019
▁Mãi	-12.002
leon	-12.0022
Au	-12.0023
▁Office	-12.0028
▁Tou	-12.0028
TE	-12.0029
▁ATP	-12.0035
yong	-12.0037
ện	-12.0039
ket	-12.004
dorf	-12.0041
▁Liêm	-12.0043
▁Cteno	-12.0044
Huân	-12.0044
ghét	-12.0046
▁Prot	-12.0047
▁Wat	-12.0048
▁Cata	-12.0048
Green	-12.005
3,3	-12.0051
ồng	-12.0059
ières	-12.0059
Diễn	-12.006
▁From	-12.006
Kế	-12.006
stat	-12.0061
▁chuối	-12.0061
▁Indian	-12.0064
lute	-12.0067
odonta	-12.0067
▁Jonathan	-12.0068
lid	-12.0068
▁Nghề	-12.0068
▁Trí	-12.0069
mund	-12.0069
▁Palm	-12.0072
Tá	-12.0073
▁sốc	-12.0073
▁mãnh	-12.0074
uss	-12.0074
▁Benjamin	-12.0074
▁nhan	-12.0077
ucci	-12.0077
▁Carr	-12.0078
eme	-12.0078
borg	-12.008
turn	-12.0081
▁tưới	-12.0083
▁1829	-12.0083
▁Rha	-12.0085
tôn	-12.0087
Studies	-12.0087
▁mịn	-12.0088
▁Dead	-12.0089
▁kị	-12.0091
elo	-12.0092
Trụ	-12.0092
Giác	-12.0095
▁Meli	-12.0099
chiều	-12.0099
taenia	-12.0101
thra	-12.0102
▁Xác	-12.0102
▁Dra	-12.0103
Dực	-12.0103
▁Kil	-12.0104
owski	-12.0105
Bạc	-12.0106
▁Like	-12.0107
ır	-12.0108
▁Thuyết	-12.0108
▁Xbox	-12.0108
▁Gö	-12.011
otti	-12.0113
gis	-12.0114
ulatum	-12.0114
▁Blume	-12.0114
yun	-12.0117
0,9	-12.0121
▁Europa	-12.0123
oste	-12.0123
▁xả	-12.0124
Hạnh	-12.0124
cop	-12.0125
mở	-12.0126
SK	-12.0129
rima	-12.0131
ein	-12.0132
▁Cole	-12.0136
kr	-12.0137
gei	-12.0138
petala	-12.0141
▁chênh	-12.0141
▁Nokia	-12.0143
mươi	-12.0146
▁SC	-12.0147
Rịa	-12.0147
flex	-12.0148
rét	-12.0149
insky	-12.0149
▁House	-12.015
▁Coelioxys	-12.0154
▁Fissidens	-12.0154
▁gặm	-12.0154
▁Japanese	-12.0154
việt	-12.0155
▁lồi	-12.016
Mountain	-12.0161
CA	-12.0161
Red	-12.0163
frons	-12.0164
Uyển	-12.0168
▁Sab	-12.0168
scher	-12.0168
▁metal	-12.0173
▁Dictionary	-12.0175
Phan	-12.0177
AB	-12.018
Her	-12.018
ovsky	-12.0182
▁vs	-12.0183
▁SA	-12.0184
▁Gustav	-12.0186
▁Brand	-12.0186
▁Byzantine	-12.0187
▁Bhutan	-12.0187
zawa	-12.0188
hwa	-12.019
▁Earth	-12.0191
Sam	-12.0195
api	-12.0197
lấn	-12.0198
▁Rama	-12.0198
Wiki	-12.0199
TM	-12.02
chứa	-12.02
Cát	-12.0204
▁Cyclo	-12.0206
▁Spring	-12.0206
▁Mạng	-12.0207
▁tem	-12.0208
dinh	-12.0211
är	-12.0213
▁nung	-12.0213
▁Cyrtandra	-12.0214
▁đống	-12.0215
▁Khải	-12.022
▁Alexandros	-12.0221
▁Đỉnh	-12.0223
▁Nelson	-12.0228
▁Sud	-12.0228
72	-12.0228
▁Stan	-12.0228
hổ	-12.0228
rena	-12.023
▁lam	-12.0236
sema	-12.0236
▁Thes	-12.0239
▁Lệnh	-12.024
▁dâu	-12.024
▁Hãy	-12.0241
Thục	-12.0243
lind	-12.0244
▁bú	-12.0246
▁giận	-12.0247
▁chán	-12.0247
▁Melbourne	-12.0247
rotund	-12.0248
Hiểu	-12.0249
gni	-12.025
Now	-12.0252
▁Development	-12.0253
fulvi	-12.0254
arn	-12.0255
ffe	-12.0256
▁Tunisia	-12.0257
▁Vincent	-12.0258
iense	-12.0259
ame	-12.026
▁Ö	-12.026
▁Paraguay	-12.0261
anahalli	-12.0261
SU	-12.0261
▁Buôn	-12.0264
▁Kunth	-12.0266
Navás	-12.0268
▁Sou	-12.0268
RE	-12.027
Museum	-12.027
cade	-12.0271
OR	-12.0271
▁Oliver	-12.0273
gol	-12.0275
▁who	-12.0275
Đề	-12.0277
đạm	-12.0281
▁Eure	-12.0284
Kra	-12.0286
isch	-12.0287
▁Dao	-12.0287
asper	-12.0288
▁phôi	-12.0289
Crow	-12.0289
rút	-12.0292
alus	-12.0293
neta	-12.0293
Cu	-12.0293
nier	-12.0293
▁part	-12.0296
ants	-12.0299
MP	-12.0299
lột	-12.03
ente	-12.0304
ovo	-12.0304
▁1810	-12.0304
▁Tầng	-12.0305
picta	-12.0305
▁Joan	-12.0306
race	-12.0306
▁thùy	-12.0309
ialis	-12.0309
asso	-12.0309
▁Hat	-12.0312
TH	-12.0314
ester	-12.0315
Thompson	-12.0315
carp	-12.0315
▁gậy	-12.0315
denti	-12.0316
bắp	-12.032
▁Gru	-12.032
tech	-12.032
endorf	-12.0321
▁Abraham	-12.0321
▁Mich	-12.0322
▁Festival	-12.0323
▁113	-12.0324
anta	-12.0327
squam	-12.0327
ET	-12.0332
ect	-12.0332
bour	-12.0333
▁ham	-12.0333
550	-12.0334
▁tiệm	-12.0335
▁Sái	-12.0335
lậu	-12.0336
olus	-12.0336
▁Tạo	-12.0337
cs	-12.0337
cept	-12.034
▁Phra	-12.0341
Ke	-12.0342
đẫm	-12.0343
LC	-12.0343
▁Andy	-12.0345
▁Khảo	-12.0347
ño	-12.0348
vent	-12.0348
pteryx	-12.0348
▁Mozambique	-12.0349
ngoan	-12.0349
▁bè	-12.035
▁Strand	-12.0352
▁Dendro	-12.0356
▁Mác	-12.0357
▁Jeff	-12.0358
▁Maryland	-12.0358
Gar	-12.0359
▁Swift	-12.036
▁Houston	-12.0362
đũa	-12.0362
330	-12.0362
▁Sphecidae	-12.0362
Bàn	-12.0363
HO	-12.0365
Ý	-12.0365
▁112	-12.0366
obius	-12.0368
Stewart	-12.0369
▁ob	-12.037
hemi	-12.0371
Trác	-12.0372
vul	-12.0374
lf	-12.0374
▁Arc	-12.0375
Giê	-12.0378
ambo	-12.0379
erra	-12.0379
phiền	-12.038
ridae	-12.0381
Vy	-12.0382
▁Thuộc	-12.0383
▁Jimmy	-12.0383
▁kẽm	-12.0383
▁117	-12.0384
Cừ	-12.0386
đớn	-12.039
tain	-12.039
Str	-12.0391
graph	-12.0391
▁Presl	-12.0392
blo	-12.0392
Dixon	-12.0394
thus	-12.0394
Cự	-12.0395
▁muỗi	-12.0397
thịnh	-12.0398
Thất	-12.0398
ắm	-12.0402
lyn	-12.0402
tổng	-12.0402
Legend	-12.0404
Vạn	-12.0405
ović	-12.0406
▁1835	-12.0407
apicalis	-12.041
Lê	-12.0412
Hãn	-12.0413
tol	-12.0415
aru	-12.0415
The	-12.0416
nat	-12.0419
▁nọc	-12.042
▁Odonto	-12.042
Ước	-12.0421
Dou	-12.0421
▁Margaret	-12.0424
but	-12.0424
▁Et	-12.0425
keri	-12.0425
steno	-12.0428
Website	-12.0429
zona	-12.043
manh	-12.043
Salvador	-12.043
▁Tòng	-12.0431
oki	-12.0432
▁Bom	-12.0432
▁Tele	-12.0433
▁lắng	-12.0436
▁Banks	-12.044
▁Maya	-12.0441
▁Walt	-12.0444
▁Rich	-12.0447
650	-12.0448
bell	-12.0448
▁thấu	-12.045
▁Semiothisa	-12.0451
▁Triển	-12.0452
ters	-12.0452
▁Sem	-12.0457
▁Metro	-12.0458
▁Nhâm	-12.0458
orn	-12.0458
▁nha	-12.0461
Aires	-12.0461
Toshi	-12.0461
nota	-12.0464
bs	-12.0465
▁Lac	-12.0466
oideae	-12.0467
coi	-12.0471
▁Dur	-12.0473
▁Maur	-12.0474
▁Anth	-12.0477
▁Plagiochila	-12.0478
Academy	-12.0478
▁Toronto	-12.0478
chor	-12.0478
tricho	-12.0482
gaster	-12.0483
yx	-12.0483
iforme	-12.0484
▁Copa	-12.0486
Play	-12.0486
Schum	-12.0487
mad	-12.0488
born	-12.049
esii	-12.0491
occidentalis	-12.0492
esta	-12.0492
vat	-12.0494
tio	-12.0496
▁mặn	-12.0497
▁Que	-12.0498
ates	-12.0498
▁Leningrad	-12.0499
▁Thử	-12.0501
▁Town	-12.0501
Hiệu	-12.0502
aspis	-12.0503
dry	-12.0503
▁vân	-12.0503
erythro	-12.0505
▁Khan	-12.0506
▁Cyperus	-12.0506
alo	-12.0506
Gai	-12.0507
▁Xanh	-12.0507
▁Cứu	-12.0509
▁Jang	-12.051
▁ADN	-12.0515
rel	-12.0518
▁Ngữ	-12.0521
▁tâu	-12.0522
▁1826	-12.0527
Vo	-12.0528
Thám	-12.0528
hip	-12.0531
▁hoành	-12.0535
EN	-12.0535
macula	-12.0541
kiệt	-12.0545
bad	-12.0545
VA	-12.0547
▁uni	-12.0547
▁ASEAN	-12.0547
▁Page	-12.0548
▁122	-12.0549
▁profile	-12.0552
▁Thúy	-12.0552
tờ	-12.0554
▁Kastamonu	-12.0554
Cư	-12.0556
ophis	-12.0557
Jung	-12.0558
Thường	-12.0558
Singh	-12.0559
▁Space	-12.0561
▁panchayat	-12.0561
▁gracilis	-12.0564
thoi	-12.0565
▁Stro	-12.0565
Street	-12.0566
rosa	-12.0567
▁Johannes	-12.0567
NO	-12.0568
▁Pyotr	-12.0568
▁Hil	-12.0571
▁450	-12.0572
▁Elmidae	-12.0575
▁Latvia	-12.0575
▁Miconia	-12.0575
ricus	-12.0577
lepto	-12.0577
itch	-12.0579
rac	-12.0579
▁huân	-12.0582
▁Ono	-12.0583
lineatus	-12.059
viridi	-12.0591
▁Pacific	-12.0593
phone	-12.0593
ault	-12.0594
bón	-12.0594
▁lès	-12.0596
anthum	-12.0597
Hàn	-12.0597
▁Quay	-12.0598
porus	-12.0601
glauc	-12.0602
▁loan	-12.0604
Tất	-12.0608
Head	-12.0609
mặc	-12.0611
Ngộ	-12.0611
▁cuống	-12.0611
▁March	-12.0612
omo	-12.0613
▁Cin	-12.0615
ians	-12.0617
▁Mae	-12.062
▁acid	-12.0621
▁Bismarck	-12.0624
▁Frankfurt	-12.0624
▁Pap	-12.0624
▁phẳng	-12.0624
tian	-12.0627
▁Poli	-12.0629
▁Barr	-12.063
▁Aster	-12.0632
2,7	-12.0632
86	-12.0632
dịp	-12.0633
asia	-12.0636
micr	-12.0637
▁Cảm	-12.0638
MI	-12.064
ijk	-12.0641
him	-12.0645
▁XVIII	-12.0645
AV	-12.0647
Pra	-12.0649
Ken	-12.0649
▁Maine	-12.065
▁Shō	-12.065
▁not	-12.065
▁Noto	-12.0652
▁Centaurea	-12.0652
intermedia	-12.0652
For	-12.0653
PM	-12.0654
63	-12.0654
▁Matthew	-12.0656
▁Bene	-12.0658
Mac	-12.0661
▁Galium	-12.0661
▁Kỵ	-12.0664
▁rác	-12.0665
▁Tokugawa	-12.0666
▁tráng	-12.0667
apura	-12.0669
IM	-12.0669
▁Nàng	-12.067
lở	-12.0672
lii	-12.0672
▁Buenos	-12.0673
▁Nicaragua	-12.0673
buri	-12.0673
thuần	-12.0674
odi	-12.0674
▁Bai	-12.0679
▁Under	-12.0679
sman	-12.0683
▁lát	-12.0685
1,9	-12.0689
1,0	-12.0692
Bee	-12.0695
▁Qatar	-12.0695
Ty	-12.0695
ller	-12.0696
kit	-12.0698
right	-12.0701
Va	-12.0706
nghịch	-12.0706
▁Schwarz	-12.0707
▁Boris	-12.0712
nàn	-12.0713
chuộc	-12.0716
bicolor	-12.0717
▁Eli	-12.0719
asi	-12.0719
▁Trachy	-12.0723
▁chúc	-12.0723
▁cớ	-12.0724
▁В	-12.0724
răm	-12.0726
▁Tuyển	-12.0726
▁Rem	-12.0729
▁logic	-12.0729
▁Dùng	-12.0732
bula	-12.0733
lyc	-12.0735
pubescens	-12.0736
▁khâu	-12.0736
Wagner	-12.0736
oun	-12.0737
▁Hippo	-12.0738
band	-12.0742
▁Nin	-12.0742
▁Racosperma	-12.0743
▁Our	-12.0745
Dĩnh	-12.0746
Verlag	-12.0754
College	-12.0755
ders	-12.0756
▁Guy	-12.0756
▁Xantho	-12.0757
▁Crotalaria	-12.0757
▁chớp	-12.0758
▁lấn	-12.076
hối	-12.076
▁Laura	-12.0764
▁System	-12.0764
▁tể	-12.0765
White	-12.0766
Carey	-12.0766
esh	-12.0768
Publishers	-12.0773
▁chiêm	-12.0775
opterus	-12.0775
EF	-12.0776
phor	-12.0778
onne	-12.078
▁viền	-12.0782
odia	-12.0785
ack	-12.0785
Tomo	-12.0785
▁Wittmer	-12.0786
▁Hamburg	-12.0786
▁Lot	-12.0787
ats	-12.0796
nhẫn	-12.0797
2,5	-12.0798
▁Ernest	-12.08
taka	-12.08
HS	-12.0802
▁APG	-12.0804
▁Kom	-12.0805
Trân	-12.0805
chal	-12.0807
▁Aspidium	-12.0807
▁Praha	-12.081
nella	-12.081
ocephala	-12.0811
kas	-12.0813
▁Cousinia	-12.0814
▁Ontario	-12.0814
▁Cổng	-12.0815
▁bơm	-12.0818
▁210	-12.0819
▁Thắng	-12.082
duc	-12.0821
Dog	-12.0822
33	-12.0823
Biography	-12.0824
▁Nay	-12.0826
phyll	-12.0827
aster	-12.0827
▁Cru	-12.0828
▁Mala	-12.0829
uca	-12.083
Tập	-12.0831
onica	-12.0832
340	-12.0832
fr	-12.0835
▁Trump	-12.0837
jung	-12.0837
▁Medvedev	-12.0838
Mật	-12.0839
bha	-12.0839
bridge	-12.084
nya	-12.0841
otes	-12.0842
góc	-12.0843
▁Nomada	-12.0843
Cẩn	-12.0843
▁Mut	-12.0844
scha	-12.0846
▁123	-12.0847
ằm	-12.0848
Saint	-12.0849
▁Oklahoma	-12.085
▁Aderus	-12.085
yev	-12.0851
▁Cau	-12.0851
Nor	-12.0854
▁Chloro	-12.0855
angust	-12.0856
▁Hyper	-12.0858
▁Balkan	-12.0858
đúc	-12.0863
▁Mức	-12.0864
▁cọ	-12.0864
rufa	-12.0866
oniscus	-12.0866
▁155	-12.0873
Khan	-12.0874
Horse	-12.0875
▁cay	-12.0878
▁Nicholas	-12.0878
Gibb	-12.0878
culatum	-12.088
túng	-12.088
▁Thì	-12.0882
Ngưu	-12.0883
▁Nico	-12.0884
pub	-12.0886
▁lb	-12.0888
over	-12.0888
thầm	-12.0889
▁Cấm	-12.0893
▁3,5	-12.0894
ngủi	-12.0896
Chăn	-12.0899
▁CN	-12.0901
▁Mura	-12.0905
▁Titan	-12.0907
fal	-12.0911
▁Băng	-12.0911
▁Sca	-12.0911
Fo	-12.0913
▁Minas	-12.0914
It	-12.0915
ull	-12.0916
Mitchell	-12.0917
▁Dec	-12.0918
ieri	-12.0919
yna	-12.0921
3,6	-12.0921
lig	-12.0922
Mẫu	-12.0922
Vol	-12.0922
8,5	-12.0923
dil	-12.0926
▁rèn	-12.0927
Republic	-12.0928
▁Kuwait	-12.0928
Jose	-12.093
Gian	-12.093
Journal	-12.093
▁Dư	-12.0931
bạn	-12.0931
lưỡng	-12.0931
▁Weber	-12.0935
bli	-12.0938
emia	-12.0939
▁Leuc	-12.094
▁Hart	-12.0943
▁Aisne	-12.0943
work	-12.0947
cut	-12.0948
cius	-12.0948
Thiếu	-12.0948
▁Colletes	-12.095
mba	-12.0951
Ngà	-12.0952
Dị	-12.0952
loides	-12.0954
gặp	-12.0956
yeong	-12.0956
▁Namibia	-12.0957
199	-12.0962
được	-12.0965
hán	-12.0965
Obama	-12.0965
▁Friese	-12.0965
alli	-12.0966
Korea	-12.0966
đắng	-12.0975
▁Africa	-12.0975
Fl	-12.0977
Graham	-12.0978
Bội	-12.0979
▁Schimmel	-12.0979
▁HIV	-12.0979
3,8	-12.0979
gress	-12.0979
gục	-12.0979
gracilis	-12.098
đọng	-12.098
dit	-12.0982
▁175	-12.0982
▁Oct	-12.0983
▁Lord	-12.0984
▁Catocala	-12.0986
▁elegans	-12.0988
els	-12.0993
▁Russian	-12.0999
Yasu	-12.1001
mans	-12.1009
gala	-12.1009
tinus	-12.101
Liber	-12.1012
vóc	-12.1013
rone	-12.1013
nơi	-12.1013
xay	-12.1013
▁Europe	-12.1013
▁Maurice	-12.1015
Pan	-12.1016
380	-12.1017
▁ốm	-12.1019
mul	-12.1021
hyun	-12.1023
gau	-12.1024
3,1	-12.103
Jr	-12.1032
▁App	-12.1032
Ai	-12.1033
Paul	-12.1034
oneura	-12.1034
▁Valentin	-12.1035
▁Ted	-12.1036
▁Mesochorus	-12.1037
▁kiêu	-12.1037
▁Bamber	-12.1039
▁Family	-12.1039
Thới	-12.104
ars	-12.1042
quet	-12.1043
▁Savoie	-12.1044
liễu	-12.1045
Songs	-12.1049
▁Piedmont	-12.1051
▁mộng	-12.1053
▁Stein	-12.1055
cidae	-12.1055
xảo	-12.1057
▁VN	-12.1058
136	-12.1058
▁Shar	-12.106
hausen	-12.106
▁Ani	-12.106
yên	-12.1061
▁230	-12.1062
▁Metal	-12.1062
Mix	-12.1065
▁Hara	-12.1065
Bel	-12.1066
の	-12.1066
dine	-12.1067
Tráng	-12.1067
▁AFC	-12.1067
ego	-12.1068
naria	-12.1069
▁minor	-12.1071
▁Street	-12.1072
Whi	-12.1072
Hồn	-12.1073
▁Crassulaceae	-12.1073
nod	-12.1075
▁Year	-12.1076
▁Powell	-12.1076
▁Mũi	-12.1076
▁Gur	-12.108
▁Artemisia	-12.1081
aco	-12.1082
aceum	-12.1082
zzi	-12.1082
▁Adams	-12.1086
▁Dermestidae	-12.1088
Ngạc	-12.1088
▁Lân	-12.1088
tner	-12.1089
rem	-12.1091
▁phác	-12.1092
bie	-12.1093
▁Viết	-12.1093
cki	-12.1094
▁nai	-12.1098
Ad	-12.1099
uto	-12.1101
Č	-12.1102
ovice	-12.1104
▁Death	-12.1105
▁khôn	-12.1105
ors	-12.1107
eki	-12.1108
nghèo	-12.1109
▁Enicospilus	-12.111
Robinson	-12.1111
kul	-12.1114
▁Khe	-12.1116
3,7	-12.1116
nôn	-12.1116
chợ	-12.1117
▁Parthia	-12.1118
yat	-12.1118
hiko	-12.1119
has	-12.112
Kazu	-12.1121
spermum	-12.1122
▁Indo	-12.1122
▁Esp	-12.1122
Inc	-12.1123
▁Festuca	-12.1124
chinensis	-12.1125
134	-12.1125
▁Normandy	-12.1125
▁Gala	-12.1127
▁Raj	-12.1129
▁Sakura	-12.1129
▁Gan	-12.1129
▁chanh	-12.113
▁Ăn	-12.1132
4,2	-12.1132
xóm	-12.1135
giấy	-12.1136
Kar	-12.1137
▁Glen	-12.1138
▁Sumatra	-12.1139
OL	-12.1139
Lennon	-12.1141
tou	-12.1141
CL	-12.1143
▁Kay	-12.1145
dic	-12.1146
▁lụa	-12.1146
▁Luxembourg	-12.1146
uve	-12.1147
Nixon	-12.1148
▁Cir	-12.115
▁190	-12.1151
▁Vicia	-12.1153
л	-12.1153
▁Hou	-12.1155
Madison	-12.1155
▁đao	-12.1158
▁Lie	-12.1158
dda	-12.1161
▁Uzbekistan	-12.1161
gói	-12.1161
insularis	-12.1162
▁Cast	-12.1162
▁bành	-12.1163
fact	-12.1163
▁Bul	-12.1163
biếm	-12.1163
▁Marine	-12.1166
▁Edo	-12.1166
▁Kos	-12.1167
Constantinopolis	-12.1169
▁Ampedus	-12.1169
▁Phys	-12.117
▁MP	-12.1171
▁Pleuro	-12.1172
four	-12.1173
▁ôm	-12.1173
▁Quê	-12.1175
▁gởi	-12.1176
icula	-12.1177
Doanh	-12.1178
pie	-12.1178
3,4	-12.1179
indica	-12.1181
▁Azur	-12.1182
▁which	-12.1183
phải	-12.1183
than	-12.1184
TF	-12.1185
latus	-12.1186
▁thiêu	-12.1188
▁Opera	-12.1189
AG	-12.1192
Sh	-12.1194
▁thiêng	-12.1194
▁thê	-12.1197
kensis	-12.1198
▁Leucania	-12.1198
▁Records	-12.12
ĩ	-12.1202
basis	-12.1204
psi	-12.1204
unt	-12.1205
falc	-12.1205
▁Honduras	-12.1205
gomphus	-12.1206
▁Pit	-12.1206
merus	-12.1211
▁Rod	-12.1211
▁Born	-12.1212
nghênh	-12.1213
▁Age	-12.1213
▁Susan	-12.1214
▁quyên	-12.1215
macr	-12.1218
▁Women	-12.122
▁Vernonia	-12.122
lah	-12.1221
mãi	-12.1221
iki	-12.1222
▁Xét	-12.1222
bac	-12.1223
cil	-12.1223
▁Poa	-12.1224
Lem	-12.1226
▁Kel	-12.1226
▁CHDCND	-12.1228
cycl	-12.1231
matsu	-12.1236
tonii	-12.1237
▁Cri	-12.1238
alta	-12.1239
▁Nikolai	-12.1239
Dã	-12.1241
uth	-12.1241
▁Serie	-12.1242
flavo	-12.1242
print	-12.1242
đặn	-12.1243
trix	-12.1245
dica	-12.1247
Ber	-12.1247
▁Carthage	-12.125
▁enzyme	-12.1251
▁Mimosa	-12.1252
▁Dấu	-12.1252
Wi	-12.1252
gami	-12.1252
▁cõi	-12.1253
▁Charlie	-12.1256
vần	-12.1256
uồng	-12.1257
▁Tĩnh	-12.1257
▁Thai	-12.1258
eca	-12.1262
rec	-12.1263
McCartney	-12.1265
▁Stanley	-12.1265
Điệu	-12.1266
137	-12.1269
▁Nhái	-12.1269
Johnson	-12.1274
hand	-12.1279
moth	-12.128
Mil	-12.128
▁other	-12.1281
ition	-12.1282
zie	-12.1286
lap	-12.1287
etes	-12.1288
▁Princeton	-12.1289
wat	-12.129
gale	-12.1292
Plant	-12.1294
▁Master	-12.1294
stand	-12.1294
gom	-12.1295
nông	-12.1296
ptero	-12.1297
School	-12.1299
spina	-12.13
ocalyx	-12.13
▁Chư	-12.1303
tara	-12.1303
gensis	-12.1303
▁Heli	-12.1306
ер	-12.1309
ч	-12.131
▁tệp	-12.1312
rostris	-12.1314
Henry	-12.1314
▁Von	-12.1315
cephal	-12.1315
▁Ble	-12.1317
▁Venezia	-12.1317
Face	-12.1319
▁cu	-12.132
how	-12.132
▁Warner	-12.1321
Slam	-12.1321
pensis	-12.1325
▁young	-12.1327
Arts	-12.1327
sec	-12.133
▁Billy	-12.1332
▁over	-12.1332
uba	-12.1334
▁Serra	-12.1338
▁Charente	-12.134
▁Band	-12.134
ega	-12.1341
Sta	-12.1345
hét	-12.1346
arra	-12.1347
zio	-12.1349
Page	-12.1349
ní	-12.1351
vạ	-12.1351
%	-12.1352
culatus	-12.1352
ceras	-12.1354
▁Oz	-12.1355
Mẹ	-12.1355
143	-12.1357
ulia	-12.1358
hirt	-12.1359
ận	-12.136
Hoằng	-12.1361
▁Sto	-12.1363
gul	-12.1367
▁Kiều	-12.1368
giông	-12.1372
Sal	-12.1374
▁hãm	-12.1375
▁Collins	-12.1376
scal	-12.1377
caria	-12.1378
nhát	-12.1378
lom	-12.1383
sher	-12.1384
▁Dinh	-12.1389
phấn	-12.139
roth	-12.1391
▁Diplazium	-12.1392
▁Polystichum	-12.1392
▁Thầy	-12.1393
▁Gary	-12.1393
naga	-12.1396
▁Centro	-12.1397
posit	-12.1398
▁Cham	-12.1398
44	-12.1398
▁145	-12.1398
grandis	-12.1403
▁Chlor	-12.1405
zaki	-12.1405
MD	-12.1407
▁cọp	-12.1409
pica	-12.141
▁Harrison	-12.1412
▁Iron	-12.1413
oph	-12.1414
ume	-12.1417
tắm	-12.1419
▁Rec	-12.142
chảo	-12.1421
133	-12.1422
RT	-12.1422
▁1812	-12.1424
Hin	-12.1425
Mitsu	-12.1428
lề	-12.143
▁María	-12.1431
▁Helen	-12.1433
inga	-12.1433
mora	-12.1433
▁Font	-12.1434
rinus	-12.1435
úng	-12.1435
▁mào	-12.1437
pauci	-12.1438
tenuis	-12.144
▁xơ	-12.144
▁Bin	-12.1442
yle	-12.1443
▁nhi	-12.1445
▁Steyerm	-12.1446
▁Trai	-12.1447
Kê	-12.1447
▁Đang	-12.1448
terna	-12.1449
Nương	-12.1449
▁vòi	-12.145
▁Dave	-12.1452
▁Scytodes	-12.1452
Christmas	-12.1454
▁Ronald	-12.1456
iens	-12.1459
▁Giọng	-12.146
Ng	-12.1463
▁CCD	-12.1465
▁Acantho	-12.1465
Gold	-12.1466
thel	-12.1467
▁Shimoga	-12.1468
▁Bir	-12.1469
yra	-12.1473
▁Trạng	-12.1475
▁Orthotrichaceae	-12.1475
▁Lucanidae	-12.1475
Ngô	-12.1475
▁Malawi	-12.1476
▁music	-12.1478
▁Sparta	-12.1478
lodes	-12.1478
▁Vit	-12.1479
ói	-12.1482
GP	-12.1485
dii	-12.1485
răng	-12.1485
chù	-12.149
▁điệp	-12.1491
Rang	-12.1492
▁út	-12.1493
ticum	-12.1497
Toản	-12.1499
trùm	-12.1499
▁Sym	-12.15
thạo	-12.15
▁OS	-12.15
nạ	-12.15
▁Vienne	-12.15
chii	-12.15
tonia	-12.1502
▁Brad	-12.1502
oux	-12.1503
Corn	-12.1503
Vu	-12.1506
down	-12.1508
azi	-12.1509
▁Special	-12.151
Gen	-12.1511
fran	-12.1511
▁Eugen	-12.1512
alla	-12.1512
▁Aloe	-12.1513
▁Fleutiaux	-12.1513
▁Nevada	-12.1513
cauda	-12.1513
▁Sher	-12.1517
Lỗ	-12.1518
west	-12.1518
▁Somalia	-12.1519
▁Doubs	-12.1521
ngoặt	-12.1521
▁Fernando	-12.1522
▁Nổi	-12.1522
▁Gilbert	-12.1522
kol	-12.1523
▁Hiro	-12.1527
▁Santo	-12.1527
ments	-12.1528
ater	-12.1531
TP	-12.1535
▁Mandya	-12.1536
▁Rhe	-12.1536
▁Gin	-12.1537
cir	-12.1539
opis	-12.1539
▁Law	-12.1541
▁also	-12.1543
aceus	-12.1543
avia	-12.1543
▁gặt	-12.1544
Holland	-12.1548
▁trùm	-12.1549
▁Bấy	-12.1549
▁up	-12.1549
chloro	-12.155
Nhược	-12.1552
▁Haplo	-12.1552
▁Darwin	-12.1552
Klein	-12.1553
▁AK	-12.1553
▁ghét	-12.1556
ated	-12.1557
น	-12.1559
▁Zambia	-12.1559
▁Món	-12.156
bl	-12.156
▁Fed	-12.1561
Clay	-12.1562
glu	-12.1563
tens	-12.1565
Nobel	-12.1566
most	-12.1567
pher	-12.1567
buồm	-12.1567
angusti	-12.1567
▁Glenea	-12.1568
nur	-12.1569
glabra	-12.1571
▁Tag	-12.1571
▁Calo	-12.1574
sell	-12.1574
Thúy	-12.1575
Britain	-12.1575
DF	-12.1576
kat	-12.158
▁132	-12.1582
rạc	-12.1584
▁Heteropoda	-12.1584
eder	-12.1584
▁Naka	-12.1586
▁Castro	-12.1586
rier	-12.1588
▁rufi	-12.1588
ass	-12.159
ej	-12.1591
ror	-12.1591
ische	-12.1591
tie	-12.1592
▁IBM	-12.1592
▁Kent	-12.1592
Wonder	-12.1594
eury	-12.1595
▁Beijing	-12.1598
Timor	-12.1598
ridge	-12.1598
dec	-12.1599
▁165	-12.16
▁116	-12.16
▁Bug	-12.1601
rá	-12.1602
chlor	-12.1602
kos	-12.1602
ngủ	-12.1603
▁gác	-12.1603
longipes	-12.1603
▁amin	-12.1604
▁Hạnh	-12.1604
Lake	-12.1605
▁sex	-12.1605
▁quyến	-12.1605
sonia	-12.1605
▁sụt	-12.1605
ь	-12.1607
▁119	-12.1607
pilosa	-12.1609
hỉ	-12.161
leg	-12.1611
▁Ridl	-12.1612
ions	-12.1612
▁Newcastle	-12.1613
calyx	-12.1615
Daily	-12.1616
tăm	-12.1616
▁Louisiana	-12.1616
36	-12.1617
195	-12.1619
▁Johnny	-12.162
▁Stigmella	-12.1621
sana	-12.1623
cine	-12.1628
▁Hamilton	-12.1629
tig	-12.163
nio	-12.1631
đo	-12.1631
Fu	-12.1633
agrion	-12.1636
▁Wright	-12.1636
▁Xin	-12.1638
Bay	-12.164
Hol	-12.1642
ị	-12.1643
brunnea	-12.1645
eff	-12.1647
tima	-12.1648
▁XV	-12.1651
747	-12.1652
▁MW	-12.1656
dora	-12.1657
▁African	-12.1657
▁Was	-12.1659
themis	-12.166
Suzuki	-12.166
trans	-12.1661
hoi	-12.1663
pf	-12.1663
vic	-12.1665
Science	-12.1665
orensis	-12.1665
liv	-12.1666
▁Philo	-12.1667
▁Ava	-12.1673
Ư	-12.1673
holm	-12.1673
cks	-12.1674
uti	-12.1674
Chấn	-12.1675
▁Olios	-12.1675
▁Oliv	-12.1675
trước	-12.1676
▁tạng	-12.1676
▁XP	-12.1683
▁bó	-12.1683
▁Middle	-12.1683
Băng	-12.1685
deri	-12.1685
Chú	-12.1685
sko	-12.1686
nari	-12.1688
gues	-12.1689
▁chéo	-12.169
▁Arab	-12.169
▁Rhododendron	-12.169
▁240	-12.1691
▁báu	-12.1694
Delhi	-12.1694
Wal	-12.1694
léo	-12.1694
rộn	-12.1697
vịt	-12.1699
vả	-12.1702
móng	-12.1704
▁vuốt	-12.1706
▁Uni	-12.1709
Cal	-12.171
▁Pter	-12.1711
bensis	-12.1712
ghe	-12.1712
pleura	-12.1713
▁Perdita	-12.1714
▁pharaon	-12.1714
▁woo	-12.1715
ường	-12.1716
Bell	-12.1717
elegans	-12.1719
▁plan	-12.1719
ochloa	-12.172
cei	-12.172
We	-12.1721
▁114	-12.1721
▁Dioscorea	-12.1721
zzo	-12.1722
▁Insee	-12.1723
▁pan	-12.1724
▁Aube	-12.1724
▁Josh	-12.1724
chọi	-12.1729
Form	-12.1731
▁Cú	-12.1731
lling	-12.1732
ís	-12.1737
chước	-12.1738
▁Sw	-12.1739
dler	-12.1741
dỗ	-12.1742
bae	-12.1742
lut	-12.1745
Tịnh	-12.1747
Quế	-12.1747
OP	-12.1747
tl	-12.1748
▁đè	-12.1749
▁tetra	-12.1749
mena	-12.1749
▁Mare	-12.1751
▁Nicolas	-12.1754
▁Brid	-12.1755
▁has	-12.1757
▁gò	-12.1758
Language	-12.176
▁Hindu	-12.1761
Sti	-12.1763
▁Force	-12.1764
stel	-12.1764
EM	-12.1766
vã	-12.1766
Kham	-12.1767
RC	-12.177
Pun	-12.1771
х	-12.1774
tỉ	-12.1774
▁Đương	-12.1774
Diệm	-12.1774
Vel	-12.1774
ortho	-12.1778
▁chè	-12.1782
▁Campo	-12.1782
Liêm	-12.1784
▁Attelabidae	-12.1784
dun	-12.1786
ẫm	-12.1787
▁Jet	-12.1787
▁Ilex	-12.1788
Adams	-12.1789
▁Chimarra	-12.1792
▁1500	-12.1792
Sea	-12.1797
▁Site	-12.1801
▁blog	-12.1801
ochr	-12.1801
Munich	-12.1802
5,2	-12.1803
plect	-12.1804
▁rưỡi	-12.1807
tag	-12.1809
▁Mall	-12.1809
kam	-12.181
usta	-12.1811
▁Julia	-12.1812
▁ABC	-12.1812
144	-12.1813
Phy	-12.1814
▁ấu	-12.1814
▁Helichrysum	-12.1815
▁Iberia	-12.1816
Hạc	-12.1816
▁Chưa	-12.1816
▁Ada	-12.1819
divers	-12.1819
penta	-12.182
Trúc	-12.182
▁tỉa	-12.1823
▁Octavius	-12.1823
▁1801	-12.1825
ка	-12.1827
fri	-12.1828
▁Tat	-12.1828
▁Philippine	-12.1831
Bồng	-12.1835
Box	-12.1836
▁118	-12.1836
ochilus	-12.1837
▁Himalaya	-12.1839
1,5	-12.1839
Art	-12.1841
▁Channel	-12.1847
▁Pyrausta	-12.1847
ngân	-12.1847
Columbia	-12.1848
▁gieo	-12.1848
▁320	-12.1848
▁Khiết	-12.1856
▁two	-12.1856
Mậu	-12.1858
▁lùi	-12.1861
đả	-12.1861
▁Athena	-12.1863
▁căm	-12.1863
▁Xylo	-12.1864
▁Viet	-12.1864
▁124	-12.1865
anne	-12.1866
▁Sid	-12.1866
▁Hyp	-12.1867
▁đừng	-12.187
stadt	-12.1871
▁Marco	-12.1873
07	-12.1874
enii	-12.1876
TT	-12.1877
▁Bha	-12.1879
▁Einstein	-12.188
▁Santos	-12.1882
archa	-12.1882
▁1806	-12.1883
▁urani	-12.1884
▁Final	-12.1887
▁Chal	-12.1889
curvi	-12.189
diana	-12.1891
play	-12.1894
spic	-12.1896
▁Link	-12.1896
ỏ	-12.1897
▁Carter	-12.19
▁Russell	-12.1902
5,6	-12.1903
ospermum	-12.1906
▁Mello	-12.1908
▁Orange	-12.1908
▁Aragon	-12.1909
sm	-12.191
▁Pel	-12.1911
sdorf	-12.1912
Thuật	-12.1913
Ear	-12.1914
▁Turk	-12.1917
▁Nas	-12.1917
▁thiếp	-12.1918
▁Rolling	-12.192
tản	-12.192
Xử	-12.1921
▁cre	-12.1921
▁­	-12.1922
▁Ath	-12.1923
▁121	-12.1923
gibb	-12.1924
▁Jennifer	-12.1926
Athletic	-12.1926
▁Pres	-12.1926
▁Sarı	-12.1927
ress	-12.1929
sụp	-12.1931
rut	-12.1932
fia	-12.1932
Hau	-12.1933
▁Château	-12.1934
▁Military	-12.1934
▁Helio	-12.1934
xiêm	-12.1934
oth	-12.1935
nubi	-12.1937
Lặc	-12.1938
▁post	-12.1938
▁Ê	-12.1938
▁sét	-12.1939
▁Come	-12.194
enahalli	-12.194
▁Moscow	-12.1942
GM	-12.1943
▁Vịt	-12.1944
PP	-12.1945
▁Short	-12.1948
▁Tà	-12.1949
prae	-12.1951
hed	-12.1954
147	-12.1954
maru	-12.1955
Hân	-12.1956
Don	-12.1957
▁cởi	-12.1958
ghép	-12.196
hill	-12.196
ities	-12.1963
▁Marg	-12.1963
rol	-12.1963
CR	-12.1965
tropis	-12.1965
spira	-12.1965
lym	-12.1966
▁Khiêm	-12.1966
psis	-12.1967
▁nứt	-12.1967
▁TH	-12.1967
ếm	-12.1967
niana	-12.1969
▁Hunt	-12.197
Fish	-12.1971
Owen	-12.1971
Phu	-12.1972
▁Chinese	-12.1974
▁Full	-12.1975
news	-12.1977
▁126	-12.1978
▁bẻ	-12.1978
▁Pseuda	-12.1978
Arena	-12.1979
take	-12.1979
Bre	-12.198
▁Athyrium	-12.1982
▁Myrmarachne	-12.1982
▁TVB	-12.1986
▁nhẫn	-12.1986
▁lót	-12.1986
Project	-12.1987
anis	-12.1987
▁Bembidion	-12.199
anthemum	-12.199
skaya	-12.1992
▁mg	-12.1994
▁Yoon	-12.1995
mong	-12.1997
▁THPT	-12.1998
▁Napoli	-12.1998
tif	-12.2
Dae	-12.2003
▁Rin	-12.2004
gii	-12.2005
▁hở	-12.2005
▁Stockholm	-12.2006
luk	-12.2006
fle	-12.2007
146	-12.2007
▁Arm	-12.201
hyp	-12.201
laena	-12.201
▁0,8	-12.2013
Brachytheciaceae	-12.2014
3,5	-12.2014
Phêrô	-12.2014
▁Jacoby	-12.2016
cry	-12.2018
▁Cali	-12.2019
▁Single	-12.2019
▁Hard	-12.202
silv	-12.202
Sai	-12.2022
idea	-12.2025
▁you	-12.2026
▁rể	-12.2027
litz	-12.2027
▁Rey	-12.2029
lep	-12.203
ñ	-12.2031
Wilson	-12.2035
tex	-12.2035
Mc	-12.2036
▁Dạ	-12.2037
▁Universal	-12.2038
▁1820	-12.2038
▁Platia	-12.2039
vina	-12.2039
▁Isaac	-12.204
diệu	-12.204
oke	-12.2041
▁College	-12.2043
Monroe	-12.2046
▁Spilosoma	-12.2046
▁Florence	-12.2046
▁Trác	-12.2046
▁Yuki	-12.2047
saka	-12.2047
mona	-12.2047
system	-12.2048
rance	-12.2049
▁Thuần	-12.205
Vang	-12.205
▁Valencia	-12.2054
gona	-12.2054
Flow	-12.2056
▁Chau	-12.2058
▁text	-12.2059
Cô	-12.206
eş	-12.206
▁Ernst	-12.2062
▁Myr	-12.2066
▁Proc	-12.2069
nig	-12.207
imi	-12.2071
bilis	-12.2071
▁Pink	-12.2071
yen	-12.2073
▁Virgin	-12.2076
Front	-12.2078
▁Charlotte	-12.2078
â	-12.2079
acanthus	-12.2079
▁Đắc	-12.2079
gov	-12.2084
enbach	-12.2085
rō	-12.2085
▁trăng	-12.2085
Hopkins	-12.2086
chilus	-12.2086
minuta	-12.2089
sica	-12.2091
MO	-12.2092
▁Phyllonorycter	-12.2094
▁Thịnh	-12.2094
▁suýt	-12.2095
hoạn	-12.2096
▁khoác	-12.2097
Eagle	-12.2099
ddle	-12.2099
▁tết	-12.2099
▁About	-12.2103
idum	-12.2105
gou	-12.2105
TI	-12.2105
▁Core	-12.2108
▁Some	-12.2108
▁Ever	-12.211
dở	-12.2112
CB	-12.2112
6,2	-12.2113
zov	-12.2114
ott	-12.2114
Atlas	-12.2115
cross	-12.2116
novo	-12.2117
yensis	-12.2117
198	-12.2119
plum	-12.2119
4,7	-12.2119
elongata	-12.212
▁Fiji	-12.212
Đống	-12.2123
tí	-12.2124
▁Bau	-12.2125
mono	-12.2126
▁phượng	-12.2127
▁Phép	-12.2127
ender	-12.2127
Phóng	-12.2128
▁Secret	-12.2128
▁Movie	-12.2128
nitz	-12.213
php	-12.2131
khó	-12.2132
Low	-12.2132
dh	-12.2133
IL	-12.2135
▁Ctenus	-12.2135
trọt	-12.2139
ichthys	-12.214
nitid	-12.2141
Nhượng	-12.2143
▁Dance	-12.2143
▁1789	-12.2144
Thoại	-12.2144
Cor	-12.2145
charis	-12.2148
oca	-12.2148
Bal	-12.2149
cun	-12.215
gác	-12.2151
▁Nghe	-12.2154
even	-12.2155
cari	-12.2156
▁Giovanni	-12.2157
nóng	-12.2157
▁luyến	-12.2159
côi	-12.2159
4,4	-12.216
▁tiếc	-12.2165
▁Oreo	-12.2167
▁Coenagrionidae	-12.2167
▁Cad	-12.2168
4,6	-12.2169
▁Ngã	-12.2171
▁Tháo	-12.2172
ded	-12.2173
sphaer	-12.2176
Idol	-12.2177
▁Wayne	-12.2179
Land	-12.2183
Timberlake	-12.2183
bata	-12.2185
serrat	-12.2186
▁Disco	-12.2187
nice	-12.2187
▁Luke	-12.2191
▁162	-12.2191
▁Uttar	-12.2193
ipper	-12.2198
ppi	-12.2201
▁net	-12.2201
unc	-12.2202
spir	-12.2204
nã	-12.2206
▁Mapquest	-12.2208
Khai	-12.2209
▁Thới	-12.2213
rist	-12.2213
NI	-12.2215
soi	-12.2216
▁diễu	-12.2216
▁Singles	-12.2217
Tab	-12.2219
Tuệ	-12.2219
Fre	-12.2224
310	-12.2225
cưa	-12.2225
▁Bren	-12.2225
Live	-12.2225
4,8	-12.2226
geri	-12.2227
sensis	-12.223
CI	-12.2231
éo	-12.2232
▁géographique	-12.2232
Brothers	-12.2234
▁Colo	-12.2235
chàng	-12.2238
opoda	-12.2238
▁Mobile	-12.2239
▁0,5	-12.224
▁Moraceae	-12.2243
DP	-12.2243
euil	-12.2244
▁Chrys	-12.2244
ventris	-12.2244
5,4	-12.2247
▁Scot	-12.2248
▁sổ	-12.2249
shō	-12.2249
dâu	-12.2251
Cam	-12.2253
cili	-12.2254
èn	-12.2256
asco	-12.2256
phorus	-12.2256
ün	-12.2259
master	-12.2259
FL	-12.226
nee	-12.2261
168	-12.2263
ught	-12.2264
▁Leopold	-12.2265
▁chìa	-12.2272
đĩa	-12.2273
▁dưa	-12.2273
ük	-12.2273
pteris	-12.2275
▁1805	-12.2276
▁Abdul	-12.2276
stachys	-12.2278
▁Stre	-12.2278
▁lau	-12.228
▁Gaga	-12.2281
Cameron	-12.2282
3,0	-12.2282
▁Lycosa	-12.2284
meria	-12.2284
costata	-12.2284
▁gân	-12.2284
▁Dominica	-12.2285
sat	-12.2289
▁Brandenburg	-12.229
Act	-12.2291
DE	-12.2292
▁Dạng	-12.2292
roides	-12.2293
▁Penta	-12.2293
dt	-12.2294
kie	-12.2296
▁Wan	-12.2297
▁Tuấn	-12.2298
▁nitơ	-12.2298
▁track	-12.2301
odendron	-12.2303
hoff	-12.2304
▁sùng	-12.2305
xích	-12.2305
rau	-12.2309
ẩy	-12.2311
pad	-12.2312
ares	-12.2315
▁Mysore	-12.2316
Phố	-12.2318
parti	-12.2318
lita	-12.232
hall	-12.2322
▁Palau	-12.2323
▁mậu	-12.2324
▁ngà	-12.2326
hạt	-12.2328
ố	-12.2328
lec	-12.2329
este	-12.2329
▁1821	-12.2331
▁Bahrain	-12.2331
ushi	-12.2332
▁dán	-12.2334
glossa	-12.2335
Parker	-12.2336
japonica	-12.2339
О	-12.2339
ĐT	-12.2341
SR	-12.2341
bóp	-12.2341
dao	-12.2342
ain	-12.2342
jō	-12.2343
oper	-12.2344
idion	-12.2345
bah	-12.2347
▁Ocean	-12.2348
▁Garonne	-12.2348
▁Rei	-12.2352
huấn	-12.2352
igo	-12.2353
▁Summer	-12.2354
Hee	-12.2355
▁Mecklenburg	-12.2356
Hudson	-12.2356
cella	-12.2358
Thừa	-12.236
alan	-12.236
▁Field	-12.2362
Phụng	-12.2362
simil	-12.2362
lius	-12.2363
4,3	-12.2364
erina	-12.2367
escu	-12.2368
▁Doctor	-12.2368
▁280	-12.2369
history	-12.2369
sticta	-12.237
▁Bush	-12.2371
ł	-12.2373
rine	-12.2376
▁Show	-12.2378
Beck	-12.238
flor	-12.238
▁Berberis	-12.2382
başı	-12.2382
cấm	-12.2385
umi	-12.2387
Son	-12.2388
▁Animal	-12.2389
Montgomery	-12.2389
nộ	-12.2389
57	-12.239
range	-12.239
▁sam	-12.2391
▁càn	-12.2391
ngập	-12.2391
▁Ami	-12.2394
▁Lar	-12.2394
▁Domin	-12.2396
unicolor	-12.2397
▁Janeiro	-12.2398
▁Zyg	-12.2401
ovii	-12.2401
▁clorua	-12.2401
▁Thỏ	-12.2402
tele	-12.2402
▁Bengal	-12.2406
cerus	-12.2409
Campbell	-12.2415
Roberts	-12.2417
▁Line	-12.2419
▁Hôn	-12.242
sino	-12.2421
Je	-12.2422
▁Ẩm	-12.2423
cù	-12.2427
arthr	-12.2427
▁mùng	-12.2428
▁Đột	-12.2428
ogo	-12.2429
▁ngục	-12.243
Bor	-12.2432
▁Atlanta	-12.2435
Revolution	-12.2437
stal	-12.2437
▁Harold	-12.244
▁Rhein	-12.244
RN	-12.2443
grisea	-12.2444
Dela	-12.2445
Thìn	-12.2445
wu	-12.2445
5,3	-12.2447
Toại	-12.2448
mexicana	-12.2448
▁Xinglong	-12.2448
yaku	-12.2451
139	-12.2451
▁tủy	-12.2451
thép	-12.2451
nhạt	-12.2455
▁Masdevallia	-12.2456
Nông	-12.2457
191	-12.2457
sá	-12.246
esa	-12.2461
Ô	-12.2462
ự	-12.2462
▁Aniso	-12.2462
▁Württemberg	-12.2464
Chan	-12.2466
ngạch	-12.2467
▁Athens	-12.2467
strum	-12.2468
ná	-12.2468
clea	-12.2469
▁pho	-12.2471
▁chiên	-12.2471
post	-12.2471
PC	-12.2472
lana	-12.2473
▁Đổi	-12.2473
Wer	-12.2474
Ze	-12.2475
gata	-12.2475
▁thự	-12.2477
▁Roth	-12.2479
7,2	-12.248
▁Oxytropis	-12.2481
Nham	-12.2482
iodes	-12.2483
DC	-12.2483
arti	-12.2484
▁Ao	-12.2484
seni	-12.2486
ẩu	-12.2489
▁rò	-12.2489
gent	-12.249
Lân	-12.249
▁Willis	-12.2491
Giai	-12.2491
ularia	-12.2496
xyl	-12.2496
thoáng	-12.2498
▁Holttum	-12.2499
▁kẹo	-12.2499
Court	-12.25
rỗi	-12.2501
▁khiêm	-12.2501
▁Bathy	-12.2504
anto	-12.2505
▁Hey	-12.2505
cheri	-12.2506
▁Palearctic	-12.2507
nặng	-12.2507
Standard	-12.2508
Bỉnh	-12.251
▁Chấn	-12.2511
glo	-12.2511
▁sớ	-12.2513
▁mừng	-12.2513
kii	-12.2513
▁Montenegro	-12.2515
▁Pleurothallis	-12.2515
▁Jeffrey	-12.2515
Pickard	-12.2515
▁Pak	-12.2515
fly	-12.2516
núi	-12.2516
podium	-12.2517
cation	-12.2517
kata	-12.2518
mour	-12.252
▁Voss	-12.252
▁Data	-12.252
lier	-12.2521
stachya	-12.2521
Tran	-12.2521
thea	-12.2522
▁Ille	-12.2523
brand	-12.2524
▁Çorum	-12.2524
Oai	-12.2524
plat	-12.2526
bed	-12.2527
florum	-12.2527
▁thải	-12.2528
▁trừu	-12.253
▁Cari	-12.253
▁Yoo	-12.2531
đốt	-12.2532
▁Gio	-12.2532
tini	-12.2533
đố	-12.2533
Ye	-12.2533
4,1	-12.2533
tip	-12.2534
▁eu	-12.2535
▁Ura	-12.2535
Sào	-12.2536
7,7	-12.2537
▁Ita	-12.2539
nhẹ	-12.2539
Tuất	-12.254
▁Erik	-12.2542
▁Never	-12.2542
▁have	-12.2543
Bồ	-12.2545
space	-12.2548
▁Tắc	-12.2548
ize	-12.2549
▁Hira	-12.2549
▁Stanford	-12.2549
Pana	-12.2551
tine	-12.2553
pallidi	-12.2553
trop	-12.2554
abad	-12.2557
Mạc	-12.2558
▁Bry	-12.256
Planet	-12.2561
▁xứng	-12.2562
▁Eria	-12.2564
Già	-12.2564
tris	-12.2565
Đầu	-12.2567
Sát	-12.2571
Som	-12.2572
múa	-12.2573
▁AIDS	-12.2574
Lò	-12.2575
▁Địch	-12.2576
nico	-12.2576
5,8	-12.2577
stedt	-12.258
▁jazz	-12.2583
▁won	-12.2584
Chang	-12.2584
Index	-12.2585
biện	-12.2587
nghỉ	-12.2588
▁А	-12.2588
▁Heidelberg	-12.2591
▁Vorpommern	-12.2591
Sanh	-12.2593
ortricidae	-12.2597
Moore	-12.2598
▁SEA	-12.2599
▁Kentucky	-12.26
aensis	-12.2601
▁Boz	-12.2602
lông	-12.2602
DI	-12.2605
Địa	-12.2606
pris	-12.2606
▁hoãn	-12.2608
bian	-12.2609
▁Corydalis	-12.2609
▁XVII	-12.261
▁ft	-12.261
▁Miami	-12.2611
adenia	-12.2611
▁Ras	-12.2612
▁0,7	-12.2612
Concert	-12.2612
varia	-12.2615
▁Pul	-12.2615
▁Imp	-12.2615
▁Twitter	-12.2617
Năng	-12.2618
zal	-12.2618
Mat	-12.2619
base	-12.2624
▁first	-12.2625
7,8	-12.2625
▁khanh	-12.2625
▁Osaka	-12.2626
Stuart	-12.2626
rh	-12.2628
▁Bull	-12.2628
▁Lợi	-12.263
▁móc	-12.263
made	-12.263
ár	-12.2631
vie	-12.2634
▁Bog	-12.2634
▁nhô	-12.2634
▁Ori	-12.2637
ognathus	-12.2637
▁Voi	-12.2638
spor	-12.2639
enza	-12.2641
ellidae	-12.2642
vittatus	-12.2643
▁dáng	-12.2644
▁Roll	-12.2645
▁Amsterdam	-12.2645
hya	-12.2647
▁Army	-12.2648
▁Magic	-12.2648
▁Genève	-12.2651
▁Ất	-12.2651
▁Vic	-12.2654
▁Bil	-12.2654
▁Trợ	-12.2654
Technology	-12.2659
▁Schefflera	-12.2659
▁Trinidad	-12.2659
Africa	-12.266
Lind	-12.266
▁lepto	-12.266
▁Basil	-12.2661
▁Ischn	-12.2663
rợ	-12.2664
Giới	-12.2666
ằng	-12.2666
sac	-12.2667
ж	-12.2668
▁Hexatoma	-12.2668
▁TT	-12.2669
▁Heter	-12.267
▁Mid	-12.267
vr	-12.2671
▁Kita	-12.2671
▁Ent	-12.2675
đều	-12.2675
Hills	-12.2676
И	-12.2676
▁Blackburn	-12.2677
cardi	-12.2677
sville	-12.2679
▁xẻ	-12.2681
Hô	-12.2681
sảnh	-12.2683
▁bỗng	-12.2685
Taylor	-12.2686
▁dì	-12.2686
▁Kaiser	-12.2686
mbar	-12.2686
uge	-12.2686
▁Leonard	-12.2686
Know	-12.2687
Seung	-12.2687
▁Samoa	-12.2687
▁Kum	-12.2688
▁sê	-12.269
▁into	-12.2691
gut	-12.2693
Woman	-12.2694
lib	-12.2694
thoa	-12.2694
Edwards	-12.2694
clin	-12.2694
yar	-12.2694
gara	-12.2695
▁vỗ	-12.2695
Mas	-12.2696
Sol	-12.2698
EX	-12.2699
▁Greene	-12.27
read	-12.2701
197	-12.2701
ẫy	-12.2702
Б	-12.2702
▁PGS	-12.2704
▁Novo	-12.2705
Card	-12.2707
▁SBS	-12.2709
hệt	-12.271
▁Hun	-12.271
Dan	-12.2711
▁Thang	-12.2715
▁Luna	-12.2715
▁nano	-12.2717
▁Thorell	-12.2717
▁ghen	-12.2718
▁Winter	-12.2719
Berry	-12.2719
▁Đèo	-12.272
lasi	-12.2722
▁prae	-12.2725
atra	-12.2726
penn	-12.2727
▁Trinh	-12.2727
▁Jerry	-12.2728
colo	-12.2728
Fisher	-12.2733
Dylan	-12.2734
aza	-12.2736
▁Cirsium	-12.2736
▁kíp	-12.2737
▁Him	-12.2738
▁Ful	-12.2739
▁oán	-12.2739
Voice	-12.2741
▁Ưu	-12.2746
ât	-12.2746
▁Ore	-12.2746
đăng	-12.2747
9,5	-12.2749
lands	-12.2749
▁When	-12.275
▁Cairo	-12.2751
word	-12.2752
▁Linnaeus	-12.2754
▁vụn	-12.2756
script	-12.2756
▁1802	-12.2758
ree	-12.276
▁Hiền	-12.2761
▁Epicauta	-12.2762
list	-12.2764
Kỉ	-12.277
▁Kō	-12.2771
meli	-12.2773
▁Airbus	-12.2773
chim	-12.2773
▁Kelly	-12.2776
đắn	-12.2777
▁Baltimore	-12.278
▁Hautes	-12.278
6,3	-12.278
Quyên	-12.2782
▁thềm	-12.2785
PD	-12.2786
fun	-12.2786
▁Cosm	-12.2786
194	-12.2787
▁Laurent	-12.2787
Nik	-12.2787
Grey	-12.2788
Phoenix	-12.2788
mima	-12.2788
▁Gonomyia	-12.2789
Online	-12.2797
▁Berkeley	-12.2797
▁Dứa	-12.2799
▁Chao	-12.2799
ement	-12.28
▁quạ	-12.2802
189	-12.2802
156	-12.2804
Kho	-12.2806
giục	-12.2806
▁Sparassidae	-12.2806
odor	-12.2806
obe	-12.2807
kami	-12.2807
guchi	-12.2808
▁Jefferson	-12.2808
▁Ryu	-12.2808
▁К	-12.281
Brun	-12.281
ckii	-12.2811
pora	-12.2812
khóa	-12.2813
▁Psych	-12.2813
plus	-12.2814
6,4	-12.2814
▁Semi	-12.2815
WA	-12.2816
▁Julie	-12.2818
Đê	-12.282
▁Theodor	-12.2821
didae	-12.2821
▁Nhì	-12.2822
Kit	-12.2822
chạp	-12.2823
wy	-12.2824
▁Xếp	-12.2825
6,7	-12.2827
▁Chín	-12.2829
▁Nikola	-12.2831
▁Italy	-12.2834
wang	-12.2835
gà	-12.2837
dưới	-12.2838
▁Hoành	-12.2838
▁Brook	-12.2839
nhào	-12.2839
▁Blephar	-12.284
Ass	-12.2842
vờ	-12.2844
▁sập	-12.2844
mollis	-12.2845
520	-12.2846
chlora	-12.2846
Business	-12.2849
▁Hesper	-12.285
ents	-12.2851
▁Valle	-12.2851
ül	-12.2852
▁bẩn	-12.2852
6,8	-12.2855
▁cover	-12.2855
lophus	-12.2855
icaria	-12.2856
▁260	-12.2856
Monster	-12.2856
Enterprise	-12.2858
▁Germain	-12.2858
FI	-12.2858
stemon	-12.2859
manii	-12.2862
▁tenui	-12.2863
Oak	-12.2864
PR	-12.2864
SH	-12.2866
Design	-12.2867
acuti	-12.2868
▁Đấu	-12.2868
Trần	-12.2868
▁Soul	-12.2872
Bros	-12.2873
mộng	-12.2874
inata	-12.2875
▁Anhalt	-12.2876
▁Alpha	-12.2877
▁Lon	-12.2877
3,9	-12.2877
157	-12.288
▁Weise	-12.2881
FK	-12.2882
rằng	-12.2883
kana	-12.2883
link	-12.2884
▁Dược	-12.2884
robusta	-12.2884
rab	-12.2886
Jun	-12.2888
bài	-12.2889
159	-12.2889
lene	-12.2891
▁Austin	-12.2894
7,9	-12.2894
cate	-12.2898
Quyết	-12.2899
Oscar	-12.29
tail	-12.29
Nhữ	-12.29
Pie	-12.2908
▁Trục	-12.2909
▁nhuộm	-12.291
uất	-12.2913
eriana	-12.2913
iflorum	-12.2917
5,7	-12.2918
▁Xanthorhoe	-12.2919
Gerais	-12.2919
Washington	-12.2919
▁Vốn	-12.292
6,6	-12.292
▁dồi	-12.2921
nervis	-12.2921
▁Oligo	-12.2922
▁Minor	-12.2923
Systems	-12.2925
149	-12.2925
cott	-12.2926
▁Uro	-12.2927
▁Ata	-12.2927
▁Century	-12.2927
bek	-12.2928
μ	-12.2928
174	-12.2928
▁Island	-12.2932
▁xé	-12.2933
▁ngả	-12.2934
Lược	-12.2936
Management	-12.2937
▁Pholcidae	-12.2937
Electric	-12.2937
▁Pir	-12.2937
▁Chaeto	-12.2937
▁Loạt	-12.2937
hot	-12.2938
▁ồn	-12.2939
▁Liu	-12.2941
167	-12.2946
ipa	-12.2946
capensis	-12.2946
Duệ	-12.295
yt	-12.2951
▁major	-12.2951
▁cò	-12.2951
5,1	-12.2953
bỏng	-12.2955
Mạ	-12.2957
tomo	-12.2961
kins	-12.2962
North	-12.2962
▁Fil	-12.2962
▁Biết	-12.2964
thuê	-12.2965
▁Cyrto	-12.2965
ization	-12.2965
▁dẻo	-12.2965
sperma	-12.2967
eola	-12.2968
▁−	-12.297
▁Trigon	-12.297
▁Porto	-12.2971
▁Bích	-12.2972
fusci	-12.2974
▁Lepido	-12.2974
▁Yonne	-12.2974
▁bạ	-12.2975
▁bôi	-12.2976
Trãi	-12.2976
▁trắc	-12.2978
▁Středo	-12.2981
▁Mordella	-12.2981
đập	-12.2982
▁bấm	-12.2982
tec	-12.2982
▁Dean	-12.2982
▁ngói	-12.2983
▁Social	-12.2985
▁Yar	-12.2985
leuca	-12.2987
▁Spin	-12.2989
kina	-12.2989
▁Raw	-12.2992
▁giàn	-12.2993
▁Torre	-12.2993
Ngao	-12.2994
▁Kala	-12.2996
▁Yale	-12.2997
Pol	-12.3001
▁1819	-12.3001
▁Bass	-12.3005
Ex	-12.3008
mate	-12.3008
▁lỡ	-12.3008
óng	-12.3008
Web	-12.301
Villa	-12.3012
AU	-12.3013
▁Champ	-12.3014
▁Linda	-12.3015
▁Dĩ	-12.3016
▁Gồm	-12.3016
▁Britton	-12.3019
▁Kate	-12.3021
▁Guang	-12.3022
wl	-12.3023
phantes	-12.3023
480	-12.3024
▁Manisa	-12.3024
▁Ardennes	-12.3025
▁Lupinus	-12.3025
▁129	-12.3028
TN	-12.3028
Far	-12.3029
▁Kap	-12.3031
▁Psilo	-12.3031
culata	-12.3032
▁live	-12.3032
auer	-12.3033
Explorer	-12.3034
Lắk	-12.3034
Ishi	-12.3034
▁ngươi	-12.3035
▁giã	-12.3035
pusilla	-12.3035
▁Dry	-12.3036
▁Frei	-12.3038
▁Gol	-12.3038
scop	-12.3042
▁Last	-12.3043
Simpson	-12.3043
▁Thảm	-12.3043
▁nuốt	-12.3043
lõi	-12.3043
▁Alba	-12.3048
phụng	-12.3049
▁Prion	-12.3051
▁Oro	-12.3052
OT	-12.3057
▁Tỉ	-12.3057
▁Dana	-12.3059
▁Putnam	-12.3061
▁Tờ	-12.3063
▁tà	-12.3066
Fer	-12.3067
▁270	-12.3069
TO	-12.3069
tage	-12.307
▁Mount	-12.307
front	-12.3072
▁Salix	-12.3072
spath	-12.3073
nhuệ	-12.3073
Dar	-12.3075
Bach	-12.3075
khói	-12.3075
Tuân	-12.3076
Bật	-12.3076
▁Adrian	-12.3076
▁Boo	-12.3077
corn	-12.3081
▁Aba	-12.3083
Dub	-12.3084
octo	-12.3087
uv	-12.3088
▁Greg	-12.3092
181	-12.3096
Lực	-12.3096
▁Fighter	-12.3097
eil	-12.3099
John	-12.31
▁Bis	-12.31
365	-12.3104
sima	-12.3104
▁Aka	-12.3104
rm	-12.3105
▁Malpighiaceae	-12.3105
Church	-12.3106
▁phò	-12.3109
US	-12.311
bius	-12.311
▁Run	-12.3112
7,6	-12.3112
male	-12.3113
ен	-12.3115
gae	-12.3116
gena	-12.3116
tissima	-12.3118
tể	-12.3118
CP	-12.3118
erson	-12.3119
▁5000	-12.3119
ш	-12.3123
▁Chikmagalur	-12.3123
▁Lockheed	-12.3123
▁Hiroshi	-12.3123
trichum	-12.3126
jon	-12.3127
sand	-12.3127
Davis	-12.3128
▁Đứng	-12.3128
hito	-12.3132
Yoshi	-12.3132
▁Teodor	-12.3135
Nhiên	-12.3135
oco	-12.3135
▁KBS	-12.3136
▁Miguel	-12.3138
dana	-12.3139
cularis	-12.3139
▁Res	-12.3139
kuma	-12.314
69	-12.314
▁Malaya	-12.3141
bourg	-12.3141
▁keo	-12.3142
bana	-12.3143
KH	-12.3143
lug	-12.3143
▁chryso	-12.3144
mannia	-12.3144
ggio	-12.3144
tak	-12.3146
sinensis	-12.3146
Lao	-12.3147
buôn	-12.3151
jet	-12.3151
▁Tay	-12.3152
▁Sóng	-12.3153
Ray	-12.3153
▁Vây	-12.3154
pterus	-12.3155
▁Sát	-12.3158
ặn	-12.3158
Ẩn	-12.316
capit	-12.316
▁Lit	-12.3162
,7	-12.3164
phaea	-12.3164
Penn	-12.3164
▁Indi	-12.3166
rosea	-12.3166
▁Hadena	-12.3167
ī	-12.3168
▁Cucurbitaceae	-12.3168
▁Stalingrad	-12.3168
▁Crist	-12.3169
bọt	-12.317
▁Tội	-12.3171
hất	-12.3171
chấm	-12.3173
tomi	-12.3175
▁Naval	-12.3177
Nagar	-12.3178
▁Ấp	-12.3178
▁tủ	-12.3178
▁Colle	-12.3179
▁154	-12.3181
bầu	-12.3183
mak	-12.3184
▁cấy	-12.3186
ová	-12.3188
uck	-12.3188
von	-12.3191
kir	-12.3191
Bron	-12.3191
▁1815	-12.3194
▁Thỏa	-12.3194
▁Kö	-12.3194
▁Mam	-12.3195
▁Vilaine	-12.3196
mam	-12.3196
cid	-12.3197
▁Emma	-12.3198
nense	-12.3199
rig	-12.32
▁pH	-12.3201
▁Asa	-12.3202
airmaire	-12.3205
▁Venice	-12.3205
Meyer	-12.3206
Win	-12.3206
Bác	-12.3206
▁Ophi	-12.3208
pun	-12.3211
Sp	-12.3212
▁Rho	-12.3213
rua	-12.3214
▁Mirage	-12.3215
kou	-12.3215
bak	-12.3216
▁Eugene	-12.3217
Rich	-12.3218
▁Duệ	-12.3219
▁Sing	-12.3219
▁1818	-12.3219
Bryan	-12.3219
DB	-12.322
mua	-12.322
▁Belgaum	-12.3222
▁Seattle	-12.3222
Nhưỡng	-12.3222
▁Thấy	-12.3222
▁Conoderus	-12.3223
▁Eva	-12.3225
hana	-12.3228
▁Nees	-12.3229
▁Make	-12.323
ract	-12.3233
▁Zor	-12.3233
▁Rom	-12.3233
ellum	-12.3235
▁Cav	-12.3236
▁Táo	-12.3236
phry	-12.3237
▁Tmarus	-12.324
shanensis	-12.324
Phá	-12.3242
vesti	-12.3243
Thập	-12.3244
▁Out	-12.3245
tiếc	-12.3247
179	-12.3248
▁Zhang	-12.325
guin	-12.3251
trá	-12.3251
▁Scha	-12.3252
▁beta	-12.3252
bayashi	-12.3252
angul	-12.3252
Silla	-12.3254
review	-12.3254
iff	-12.3255
▁hoán	-12.3255
▁Iris	-12.3256
▁Erio	-12.3258
IP	-12.3261
▁Elle	-12.3262
▁Pia	-12.3263
▁bắp	-12.3265
atrix	-12.3266
▁Castell	-12.3266
Tur	-12.3266
eller	-12.3266
▁Naruto	-12.3268
ally	-12.3269
▁Kiss	-12.327
▁Caroline	-12.327
schen	-12.3271
▁Apamea	-12.3276
▁Bombus	-12.3277
lưng	-12.3279
▁mổ	-12.328
▁Lyco	-12.3281
▁Cook	-12.3281
tari	-12.3282
phys	-12.3285
project	-12.3286
▁lượn	-12.3286
▁lầu	-12.3286
ừng	-12.3291
rev	-12.3291
▁Kuro	-12.3291
lith	-12.3293
▁Aph	-12.3293
▁Olympia	-12.3295
nhặt	-12.3295
monticola	-12.3296
▁Indre	-12.3298
▁Baris	-12.3298
97	-12.3299
lejeunea	-12.3299
Ranh	-12.33
Ward	-12.3302
▁Asura	-12.3303
đùi	-12.3304
▁Pavetta	-12.3304
love	-12.3304
▁Trâu	-12.3304
▁Bey	-12.3306
▁Bính	-12.3306
ering	-12.3307
phos	-12.3307
hôm	-12.3307
▁Rhino	-12.3308
clav	-12.3308
▁Adel	-12.3309
▁Mân	-12.331
osis	-12.3311
clus	-12.3311
▁Cuatrec	-12.3313
▁Og	-12.3313
▁mãn	-12.3314
▁nad	-12.3315
Book	-12.3315
▁Utah	-12.3316
▁Hope	-12.3321
Temp	-12.3321
asse	-12.3322
▁Asc	-12.3324
hō	-12.3324
▁Hunter	-12.3324
pedia	-12.3328
221	-12.3329
opter	-12.333
▁Jessica	-12.3331
▁Dactylispa	-12.3331
▁feet	-12.3332
▁version	-12.3333
iều	-12.3333
dào	-12.3335
304	-12.3336
▁team	-12.3336
lk	-12.3338
▁Musa	-12.3338
Cab	-12.3339
▁bái	-12.334
Churchill	-12.334
▁Northern	-12.3341
Stars	-12.3343
▁Pier	-12.3346
8,2	-12.3346
een	-12.3347
foot	-12.3349
Mancha	-12.3349
pse	-12.335
▁П	-12.3352
lận	-12.3352
rani	-12.3356
Đán	-12.3356
▁Kennedy	-12.3357
▁nát	-12.3358
▁Cosmarium	-12.3359
▁Fabaceae	-12.3359
giọt	-12.3359
giri	-12.3359
Morris	-12.3359
7,4	-12.336
▁Chin	-12.336
207	-12.3362
Hae	-12.3363
▁Association	-12.3364
▁Astro	-12.3365
Nan	-12.3366
▁Tau	-12.3367
lão	-12.3367
▁Amata	-12.3368
zur	-12.3369
Kan	-12.3371
▁chai	-12.3371
Kiểm	-12.3372
gramm	-12.3372
▁Pav	-12.3373
thiêng	-12.3373
ond	-12.3373
Van	-12.3377
▁Khủng	-12.3377
▁Bristol	-12.3377
LO	-12.3381
Airport	-12.3382
California	-12.3383
173	-12.3383
Cook	-12.3384
▁Tectariaceae	-12.3386
▁Bìm	-12.3386
ych	-12.3388
stich	-12.3388
tiễu	-12.3389
▁Generation	-12.3389
sula	-12.3393
Peterburg	-12.3394
obo	-12.3395
▁Cầm	-12.3396
▁Mira	-12.3396
monia	-12.3397
eric	-12.3398
▁hetero	-12.3401
▁Avi	-12.3404
▁rào	-12.3406
▁Jos	-12.3406
Quảng	-12.3407
Dậu	-12.3408
holo	-12.3409
thuở	-12.3409
Party	-12.3409
▁nhồi	-12.3411
colle	-12.3412
196	-12.3412
mene	-12.3412
Hợi	-12.3414
Break	-12.3415
▁Ale	-12.3418
▁Màn	-12.3419
▁Child	-12.3419
Place	-12.3419
Note	-12.342
▁、	-12.3422
▁Ambly	-12.3423
Hộ	-12.3424
▁Cruz	-12.3425
66	-12.3426
ôm	-12.3426
▁Viêm	-12.3427
Nadu	-12.3428
qa	-12.343
alva	-12.3432
bee	-12.3433
▁rapper	-12.3433
▁Giác	-12.3434
▁Haiti	-12.3434
chev	-12.3434
▁Cáp	-12.3437
▁Hawk	-12.3439
Kingdom	-12.3443
hos	-12.3443
tenui	-12.3444
Great	-12.3444
PH	-12.3447
▁2021	-12.3447
kla	-12.3448
▁Trich	-12.3449
▁Philopotamidae	-12.3451
stream	-12.3454
▁Oncidium	-12.346
inda	-12.346
ister	-12.346
wall	-12.3462
thử	-12.3463
evo	-12.3465
▁Sahara	-12.3466
anicus	-12.3466
▁1803	-12.3469
Browser	-12.3469
▁Nes	-12.3469
tun	-12.347
▁Nature	-12.347
rubro	-12.347
Tiễn	-12.347
Ấp	-12.347
▁diều	-12.347
Mont	-12.3471
0,5	-12.3473
▁Bruno	-12.3474
Berlin	-12.3474
▁Busan	-12.3475
Trù	-12.3477
▁Med	-12.3479
▁Kosovo	-12.3479
▁Sarawak	-12.3479
whit	-12.3481
▁Christina	-12.3481
hổng	-12.3482
ald	-12.3482
aurea	-12.3484
Fur	-12.3485
Allen	-12.3485
lex	-12.3485
▁Dom	-12.3488
▁vectơ	-12.3488
Porter	-12.349
▁Cerato	-12.3491
Dận	-12.3493
▁HTV	-12.3497
otte	-12.3497
▁nhúng	-12.3498
aden	-12.3499
hột	-12.3499
6,1	-12.35
ulf	-12.35
▁Sống	-12.3502
▁dạo	-12.3502
Princess	-12.3502
Major	-12.3505
▁xantho	-12.3506
rufescens	-12.3507
Feder	-12.3507
mie	-12.3508
cuốn	-12.351
ặc	-12.3512
nut	-12.3512
ình	-12.3512
thệ	-12.3513
sae	-12.3516
▁Cryptocarya	-12.3516
▁sáo	-12.3516
stock	-12.3517
monte	-12.3517
▁Marvel	-12.3518
4,9	-12.3518
det	-12.3518
▁1814	-12.3519
▁Ankara	-12.3521
Thận	-12.3521
Days	-12.3521
pei	-12.3522
tốn	-12.3523
▁Mùi	-12.3525
bea	-12.3525
you	-12.3527
Sho	-12.3528
▁People	-12.3528
asp	-12.353
▁Bud	-12.3531
glob	-12.3532
177	-12.3533
▁Baill	-12.3534
thur	-12.3538
Bon	-12.3539
SF	-12.3541
HA	-12.3541
9,9	-12.3542
▁Aaron	-12.3544
▁dance	-12.3545
rock	-12.3546
▁Franch	-12.3547
▁UTC	-12.3548
▁Š	-12.3549
ppen	-12.3549
7,3	-12.355
▁Holt	-12.3551
ulu	-12.3552
Thuột	-12.3553
Witt	-12.3553
▁diệp	-12.3554
Chủng	-12.3555
ngạo	-12.3556
▁Fauna	-12.3558
▁René	-12.3558
gyna	-12.3558
kki	-12.3559
▁Dro	-12.356
tỷ	-12.356
Country	-12.3563
elles	-12.3566
medio	-12.3567
Site	-12.3568
Here	-12.3568
▁Nepticulidae	-12.3572
iscus	-12.3572
▁xua	-12.3573
phlebia	-12.3573
onic	-12.3576
hof	-12.358
▁Cheiracanthium	-12.3581
▁Taraxacum	-12.3581
▁thâu	-12.3582
olejeunea	-12.3586
strig	-12.3586
ids	-12.3586
ndra	-12.3587
Jump	-12.3589
Asia	-12.3589
▁Zopheridae	-12.3591
auro	-12.3591
Spears	-12.3592
teg	-12.3593
▁Terry	-12.3594
striatus	-12.3596
▁mía	-12.3596
▁crassi	-12.3598
tipennis	-12.3599
LS	-12.36
▁Silver	-12.36
▁lít	-12.3601
▁xói	-12.3601
rufi	-12.3601
164	-12.3602
khao	-12.3603
sak	-12.3604
▁Tord	-12.3606
hau	-12.3608
Wis	-12.3609
8,8	-12.3609
gma	-12.3609
Đéc	-12.361
Bond	-12.3611
Dược	-12.3611
▁Aya	-12.3612
Yến	-12.3612
Duyên	-12.3613
▁Julian	-12.3616
305	-12.3617
ogen	-12.3618
amin	-12.3618
điểu	-12.3619
▁Hymenophyllum	-12.3619
bari	-12.3619
éc	-12.3621
▁Glenn	-12.3621
▁Kavkaz	-12.3622
luteo	-12.3624
▁Augustus	-12.3626
Mind	-12.3628
▁Hugo	-12.3628
▁Reed	-12.3628
▁Erzurum	-12.3628
▁Istanbul	-12.3628
▁Ukraine	-12.3628
Armstrong	-12.3628
▁cày	-12.3628
▁Hoắc	-12.3629
▁FM	-12.363
arium	-12.363
ás	-12.3631
8,3	-12.3633
▁Uông	-12.3633
188	-12.3634
▁Rhine	-12.3635
▁Trải	-12.3636
insignis	-12.3638
▁Mưa	-12.3638
uridae	-12.3639
hey	-12.3639
▁váy	-12.364
giêng	-12.364
Holmes	-12.3641
rha	-12.3642
styl	-12.3644
mind	-12.3647
Government	-12.3647
acuminata	-12.3647
▁Budapest	-12.3647
▁Nhằm	-12.3647
Pop	-12.3647
angustifolia	-12.3648
Ci	-12.3648
Kiện	-12.3648
▁nghiền	-12.3649
▁Clinton	-12.365
rib	-12.3652
Edge	-12.3654
mbi	-12.3655
▁But	-12.3656
Bửu	-12.3656
▁rập	-12.3657
ocerus	-12.3658
▁since	-12.3659
▁Armor	-12.366
850	-12.3661
tơ	-12.3662
đói	-12.3664
Camp	-12.3666
▁Nôm	-12.3666
▁Fujiwara	-12.3666
▁lừng	-12.3666
bina	-12.3667
nhìn	-12.3667
▁Kl	-12.3669
▁Nov	-12.3669
ề	-12.367
▁Hip	-12.3673
Gill	-12.3673
▁Libellulidae	-12.3675
thing	-12.3677
ako	-12.3678
Bailey	-12.368
gularis	-12.368
arma	-12.3683
Ó	-12.3685
▁nóc	-12.3685
ор	-12.3685
Sương	-12.3685
▁Cyclosa	-12.3686
▁ballad	-12.3686
tilla	-12.3686
cằn	-12.3688
▁Joel	-12.3689
▁Bour	-12.369
Ngu	-12.3691
nương	-12.3693
Cho	-12.3693
▁Mueang	-12.3694
fera	-12.3697
LP	-12.3698
▁Bali	-12.3704
kura	-12.3705
phiến	-12.3712
hí	-12.3713
8,4	-12.3713
vida	-12.3717
She	-12.3718
chaet	-12.3718
OC	-12.372
Use	-12.3722
cock	-12.3723
▁Raven	-12.3724
▁HLV	-12.3724
opogon	-12.3724
ovic	-12.3726
ots	-12.3726
ember	-12.3727
540	-12.3728
Er	-12.3728
virus	-12.373
▁Corse	-12.3731
Animation	-12.3732
palpis	-12.3733
maria	-12.3735
8,6	-12.3735
Falcon	-12.3735
5,9	-12.3735
176	-12.3737
odytes	-12.3737
▁Gabon	-12.3739
▁Tyl	-12.3739
1,2	-12.374
Vegas	-12.3741
fall	-12.3742
▁Yeni	-12.3746
Thích	-12.3746
naka	-12.3748
cyclo	-12.3749
▁Bundesliga	-12.3751
▁barangay	-12.3751
oğlu	-12.3752
▁Department	-12.3753
Tech	-12.3754
Stevens	-12.3754
▁If	-12.3755
bili	-12.3755
Sum	-12.3757
tarsis	-12.3758
▁Arthro	-12.3758
vid	-12.376
▁Theraphosidae	-12.3761
9,2	-12.3761
47	-12.3762
Atlantic	-12.3763
flav	-12.3765
▁Hắn	-12.3769
▁Bran	-12.377
▁Moltke	-12.377
nol	-12.3772
▁Nem	-12.3772
▁Harris	-12.3772
▁Zhu	-12.3773
scia	-12.3774
Coast	-12.3775
BR	-12.3775
mers	-12.3777
berti	-12.3777
vio	-12.3778
▁Rech	-12.3779
rix	-12.3779
iosa	-12.378
tách	-12.378
▁Athyriaceae	-12.378
mart	-12.3781
ción	-12.3782
▁Fun	-12.3785
Tốn	-12.3786
▁Gel	-12.3787
▁Kem	-12.3788
ồn	-12.3789
▁map	-12.3793
0,8	-12.3794
▁lén	-12.3794
▁Krông	-12.3797
▁camera	-12.3797
termin	-12.3798
▁Cyclosorus	-12.3799
▁Elatostema	-12.3799
xưởng	-12.3801
▁bẩm	-12.3801
Suk	-12.3802
issimum	-12.3802
306	-12.3805
▁Khâu	-12.3805
▁doi	-12.3806
vant	-12.3809
▁Three	-12.3809
▁Insects	-12.381
158	-12.3811
rense	-12.3811
Bou	-12.3812
▁PDF	-12.3813
liêu	-12.3813
▁Forest	-12.3814
ock	-12.3816
sou	-12.3816
thele	-12.3817
▁Leipzig	-12.3818
▁Ing	-12.3819
▁Bosnia	-12.3819
Soccer	-12.382
bão	-12.382
ating	-12.3821
183	-12.3824
All	-12.3824
Ol	-12.3824
▁1823	-12.3825
Steel	-12.3827
▁Phanxicô	-12.3828
▁Vậy	-12.383
ske	-12.383
171	-12.3834
▁Tung	-12.3834
mot	-12.3835
LI	-12.3836
mày	-12.3836
cey	-12.3837
Mô	-12.3837
Complete	-12.3838
villa	-12.3839
Case	-12.384
EL	-12.3841
Guardian	-12.3841
Theory	-12.3844
163	-12.3845
▁Samsun	-12.3845
Kur	-12.3845
▁Mitsubishi	-12.3847
ắng	-12.3849
Trừng	-12.3849
▁muôn	-12.3851
Station	-12.3852
Butler	-12.3854
bái	-12.3855
Alb	-12.3857
▁Forbes	-12.3857
Thức	-12.3857
hủ	-12.3858
dz	-12.3859
Sao	-12.386
▁Oda	-12.386
View	-12.386
Petersburg	-12.386
▁Blood	-12.386
▁Lag	-12.3868
dō	-12.3868
pata	-12.3869
scap	-12.387
ND	-12.387
Scott	-12.3871
lix	-12.3872
bbi	-12.3872
▁Ngu	-12.3874
PO	-12.3875
▁nhũ	-12.3876
rốt	-12.3879
▁Zen	-12.388
▁Đáng	-12.3881
Mộc	-12.3882
arensis	-12.3883
▁Tree	-12.3886
▁Cleopatra	-12.3886
Diễm	-12.3886
▁1804	-12.3887
Cop	-12.3887
eco	-12.3887
Kru	-12.3888
▁Hero	-12.3888
▁Drama	-12.3889
donia	-12.3889
Phùng	-12.389
wak	-12.3894
ssia	-12.3894
ș	-12.3894
737	-12.3895
styla	-12.3895
lõm	-12.3895
▁Copenhagen	-12.3895
▁Rafael	-12.3896
enna	-12.3898
Un	-12.3899
▁Lev	-12.3899
nil	-12.39
193	-12.39
yal	-12.39
linus	-12.3901
mò	-12.3901
560	-12.3902
End	-12.3902
▁Aristolochia	-12.3903
taro	-12.3905
▁Yokohama	-12.3905
zuki	-12.3908
thera	-12.3909
rip	-12.3912
tsky	-12.3913
Tan	-12.3914
▁Warren	-12.3914
pard	-12.3915
tứ	-12.3915
yrinidae	-12.3915
humilis	-12.3915
▁Beat	-12.3916
rex	-12.3916
Sửu	-12.3918
Wel	-12.3919
Lep	-12.3919
dha	-12.3921
▁Neil	-12.3922
▁Tamerlan	-12.3925
ôxít	-12.3925
Gun	-12.3927
hak	-12.3927
bột	-12.393
▁Hymeno	-12.3933
Wood	-12.3933
Nhiễm	-12.3934
▁Most	-12.3936
Phillips	-12.3937
▁its	-12.3937
nahalli	-12.3939
rant	-12.394
tria	-12.394
2,0	-12.3942
raz	-12.3942
tulus	-12.3943
▁Deutsche	-12.3945
178	-12.3945
9,6	-12.3949
Tý	-12.3952
▁Baly	-12.3952
đò	-12.3953
▁Juventus	-12.3954
▁Gramm	-12.3954
▁Philipp	-12.3955
shev	-12.3956
▁NY	-12.3956
▁Chùm	-12.3956
vens	-12.3956
andro	-12.3958
▁Chiang	-12.3959
come	-12.396
▁Paro	-12.3961
▁Dir	-12.3962
On	-12.3964
Bush	-12.3965
▁Haut	-12.3967
rộ	-12.3969
Xã	-12.3971
▁Erich	-12.3972
Kro	-12.3973
▁Houten	-12.3974
▁khiếm	-12.3975
opo	-12.3975
ẳng	-12.3976
ар	-12.3976
ticollis	-12.3977
Jesus	-12.3978
▁high	-12.3979
inaria	-12.3982
▁Euphyia	-12.3983
ön	-12.3986
Today	-12.399
▁Beth	-12.3991
LL	-12.3992
Virginia	-12.3993
▁xuồng	-12.3994
Sỹ	-12.3995
▁Arnold	-12.3996
Gh	-12.3996
Coll	-12.3999
ornata	-12.4001
HI	-12.4002
skyi	-12.4003
Diamond	-12.4004
stipula	-12.4004
▁yến	-12.4005
▁225	-12.4005
gha	-12.4006
▁Mata	-12.4011
▁Ahmed	-12.4012
rep	-12.4013
uh	-12.4013
melano	-12.4014
Classic	-12.4016
osperma	-12.4016
▁Wake	-12.4017
Ship	-12.4017
8,1	-12.4017
▁202	-12.4018
mộc	-12.4019
▁Harper	-12.4021
▁luộc	-12.4022
▁Eastern	-12.4023
го	-12.4024
lẫy	-12.4025
▁Ốc	-12.4026
Doãn	-12.4027
nanh	-12.4028
ặt	-12.4028
moni	-12.4037
Hum	-12.4037
gãy	-12.4038
hil	-12.404
polis	-12.4041
bles	-12.4041
▁Kings	-12.4042
▁Um	-12.4042
Wallace	-12.4042
▁Raja	-12.4042
▁Portland	-12.4044
jen	-12.4048
iventris	-12.4048
raw	-12.4055
shaw	-12.4056
rach	-12.4056
Hom	-12.4057
orchis	-12.4058
đệ	-12.4059
ango	-12.4059
▁nguội	-12.4061
▁nguyền	-12.4064
▁hip	-12.4065
RP	-12.4067
▁Kenneth	-12.4071
Spencer	-12.4071
ingii	-12.4072
▁Fraser	-12.4072
Hưu	-12.4073
Sherman	-12.4074
neg	-12.4075
▁Sphaer	-12.4078
▁ĐH	-12.4078
igma	-12.4079
dir	-12.408
Wrestling	-12.4081
osaur	-12.4081
sheim	-12.4084
Kỵ	-12.4085
æ	-12.4086
mino	-12.4088
440	-12.4089
▁1817	-12.4091
montanus	-12.4093
notus	-12.4094
phiên	-12.4099
pent	-12.4101
▁Acrocercops	-12.4101
Introduction	-12.4101
▁Lạnh	-12.4101
Weekly	-12.4102
At	-12.4106
city	-12.4108
insula	-12.4109
▁Leucauge	-12.4111
Dầu	-12.4111
kè	-12.4112
quinque	-12.4113
▁Wien	-12.4114
Yo	-12.4114
ùa	-12.4117
oya	-12.4118
8,7	-12.4119
▁142	-12.4121
▁Chống	-12.4122
gir	-12.4122
kle	-12.4123
puncti	-12.4124
Sur	-12.4124
ony	-12.4125
esis	-12.4125
garh	-12.4129
ulifera	-12.413
Т	-12.413
เ	-12.413
ớn	-12.413
▁Rachel	-12.4132
▁Sentai	-12.4132
clada	-12.4135
Joo	-12.4136
▁Barry	-12.4136
pice	-12.4136
enstein	-12.4138
▁1822	-12.4139
▁Gomphidae	-12.414
Blue	-12.4141
▁Wen	-12.4141
▁Yamato	-12.4144
gl	-12.4145
▁RAF	-12.4145
37	-12.4145
shing	-12.4146
giãn	-12.4146
andri	-12.4146
miên	-12.4147
▁Casa	-12.4149
▁Whitney	-12.415
▁Đúng	-12.4151
minor	-12.4151
▁UFO	-12.4151
Oanh	-12.4152
▁Tarn	-12.4152
ém	-12.4152
Tower	-12.4157
▁Siberia	-12.416
▁Sybra	-12.4161
▁Pax	-12.4161
Square	-12.4161
▁Stock	-12.4161
echin	-12.4163
Khiêm	-12.4166
catus	-12.4166
rema	-12.4167
acional	-12.4167
Dật	-12.4167
May	-12.4168
▁Blu	-12.4169
Davies	-12.4172
mosa	-12.4176
kee	-12.4177
ов	-12.4178
▁Pac	-12.4179
Ưng	-12.4182
▁kình	-12.4183
▁Atlantiques	-12.4185
spila	-12.4185
▁gã	-12.4186
▁Evolution	-12.4186
▁Cogn	-12.4189
pani	-12.4189
▁Lion	-12.4189
▁June	-12.419
▁Sofia	-12.4191
uana	-12.4193
186	-12.4194
trừng	-12.4194
cheon	-12.4195
Báo	-12.4195
astrum	-12.4195
centr	-12.4199
cinus	-12.42
bracteata	-12.42
▁Cryptocephalus	-12.42
169	-12.4202
Talk	-12.4202
guttata	-12.4202
Future	-12.4203
▁Môn	-12.4204
ned	-12.4207
▁quấn	-12.421
▁cau	-12.421
sik	-12.4212
atta	-12.4214
nou	-12.4216
▁Bổ	-12.4217
nitens	-12.4217
kẹ	-12.4218
ende	-12.4219
Butterflies	-12.422
▁Diabrotica	-12.422
▁Gulbarga	-12.422
Beautiful	-12.422
RAM	-12.4221
rb	-12.4222
formis	-12.4222
Roche	-12.4225
phách	-12.4225
Huế	-12.4225
Lé	-12.4226
ngạc	-12.4226
roll	-12.4226
yd	-12.4227
toi	-12.4229
cước	-12.4229
ochro	-12.423
alb	-12.423
Geographic	-12.4231
lick	-12.4232
325	-12.4234
Quả	-12.4236
rob	-12.4236
▁toa	-12.4237
DO	-12.424
ั	-12.424
pyga	-12.4241
▁Nara	-12.4243
Wheel	-12.4243
alensis	-12.4244
▁Sunda	-12.4244
ậy	-12.4247
▁Pero	-12.4248
▁Happy	-12.4251
▁Calvin	-12.4252
ellii	-12.4252
▁Tiều	-12.4253
qi	-12.4256
tory	-12.4258
▁Scho	-12.4259
▁Staurastrum	-12.426
▁Thüringen	-12.426
166	-12.4261
Tar	-12.4261
lutea	-12.4261
▁Đo	-12.4261
▁khiên	-12.4262
carpum	-12.4264
font	-12.4264
▁Deep	-12.4265
▁CPU	-12.4265
dặn	-12.4266
▁Span	-12.4267
▁Metz	-12.4268
Down	-12.4268
mula	-12.4269
Limited	-12.427
▁chưởng	-12.4272
đào	-12.4272
Directory	-12.4272
▁ôxi	-12.4275
loc	-12.4276
Media	-12.4278
▁Hua	-12.4278
cali	-12.4279
《	-12.428
byte	-12.4281
DL	-12.4282
bow	-12.4283
▁Andrei	-12.4285
▁Plo	-12.4287
▁Puy	-12.4287
Watt	-12.4288
odora	-12.4289
vik	-12.4292
▁Grim	-12.4293
basalis	-12.4293
zone	-12.4294
eman	-12.4294
fili	-12.4296
nitida	-12.4296
▁1758	-12.4297
jou	-12.4299
lop	-12.4299
sic	-12.4299
▁Hyposmocoma	-12.43
》	-12.43
alpina	-12.4301
ocnemis	-12.4301
▁Hos	-12.4303
rino	-12.4304
cran	-12.4306
erin	-12.431
▁Ech	-12.431
▁Rudolf	-12.431
▁Caloptilia	-12.431
▁Draconarius	-12.431
▁Leptodactylidae	-12.431
scut	-12.4311
dah	-12.4313
▁Diels	-12.4313
ốm	-12.4313
Ú	-12.4315
nikov	-12.4316
hirsuta	-12.4317
lub	-12.4319
Read	-12.432
Aguilera	-12.432
ecia	-12.4322
▁Sắt	-12.4322
Rub	-12.4323
Khuông	-12.4324
Search	-12.4324
ambi	-12.4324
Ung	-12.4325
▁Đồi	-12.4328
70	-12.4328
Hye	-12.4329
▁Dipoena	-12.4331
187	-12.4331
Swan	-12.4331
System	-12.4333
▁1813	-12.4335
▁Sat	-12.4335
▁chui	-12.4338
vựng	-12.4341
Archive	-12.4341
▁Youtube	-12.4341
Thomas	-12.4344
▁họng	-12.4345
460	-12.4346
▁Nong	-12.4347
Nobu	-12.4348
▁Off	-12.4348
▁148	-12.435
ais	-12.4351
▁Nephrodium	-12.4351
▁Sebastian	-12.4352
Arch	-12.4353
trèo	-12.4353
▁Cơn	-12.4353
elater	-12.4356
aklı	-12.4356
code	-12.4356
▁Ein	-12.4358
TL	-12.4361
▁Đuôi	-12.4361
▁Anisodes	-12.4362
▁Kali	-12.4362
▁dơi	-12.4363
kham	-12.4363
IR	-12.4364
hab	-12.4365
pec	-12.4365
Islands	-12.4366
▁Made	-12.4369
▁Delta	-12.4369
madagascariensis	-12.4371
▁Acinodendron	-12.4371
▁Quắn	-12.4371
gill	-12.4373
Ster	-12.4373
184	-12.4374
Math	-12.4374
sawa	-12.4375
▁TTg	-12.4375
bec	-12.4376
Ronaldo	-12.4377
teo	-12.4379
▁Ev	-12.4381
▁Sean	-12.4381
Rural	-12.4384
thịt	-12.4388
struc	-12.4388
▁Hera	-12.439
sepala	-12.439
▁Bút	-12.439
▁were	-12.439
mec	-12.4391
ttii	-12.4391
▁Mylabris	-12.4392
BT	-12.4392
▁Sé	-12.4392
arte	-12.4393
sericea	-12.4393
▁Barbula	-12.4393
mpton	-12.4393
hyd	-12.4393
▁thối	-12.4393
dalis	-12.4394
loe	-12.4395
eon	-12.4398
sab	-12.44
▁Hama	-12.44
▁Đáp	-12.4401
▁phì	-12.4402
6,9	-12.4402
bile	-12.4402
Messi	-12.4403
monti	-12.4404
▁Gấu	-12.4405
mum	-12.4406
fini	-12.4407
ralis	-12.4409
333	-12.441
chánh	-12.4411
ør	-12.4412
rze	-12.4414
mira	-12.4414
Cố	-12.4415
▁Lồng	-12.4415
fulva	-12.4416
▁sỏi	-12.4416
▁Plat	-12.4418
cit	-12.4421
colea	-12.4421
▁Alexandre	-12.4423
lore	-12.4426
tab	-12.4428
istes	-12.4431
DM	-12.4432
Source	-12.4432
đốn	-12.4433
cque	-12.4437
Trấn	-12.4438
Vượng	-12.4439
▁Public	-12.444
kaze	-12.4441
▁Magnolia	-12.4442
▁Assyria	-12.4442
▁Versailles	-12.4442
Mozart	-12.4442
phil	-12.4443
grand	-12.4444
Clark	-12.4445
▁búa	-12.4446
point	-12.4446
Comics	-12.4447
▁Cephalo	-12.4448
stylus	-12.4451
▁Mắt	-12.4451
tique	-12.4451
ngang	-12.4455
buch	-12.4456
▁Becc	-12.4456
phra	-12.4457
cchi	-12.4458
lies	-12.4458
Thom	-12.4459
Fighters	-12.4462
olata	-12.4463
▁Edinburgh	-12.4463
▁Nobita	-12.4463
Right	-12.4463
luci	-12.4463
▁kẹp	-12.4463
Ter	-12.4465
Leone	-12.4465
Tục	-12.4465
ahalli	-12.4465
gross	-12.4466
bìm	-12.447
▁góa	-12.4473
Reagan	-12.4473
reti	-12.4473
Ngang	-12.4474
Craig	-12.4474
dentatus	-12.4474
▁Graf	-12.4475
ild	-12.4476
▁Cyr	-12.4479
dig	-12.4479
Cul	-12.4482
▁Balıkesir	-12.4483
▁ngỗng	-12.4483
lice	-12.4485
▁Suốt	-12.4485
rry	-12.4486
▁phô	-12.4486
ruộng	-12.4486
9,8	-12.4488
ears	-12.4488
▁Haru	-12.4491
ан	-12.4491
xâm	-12.4493
DR	-12.4493
Cultural	-12.4494
Mercury	-12.4494
paper	-12.4494
Thiều	-12.4495
Lay	-12.4495
▁Adiantum	-12.4495
Anderson	-12.4498
nac	-12.4498
▁Gibraltar	-12.4504
▁Tajikistan	-12.4504
GI	-12.4504
angusta	-12.4505
▁thuyên	-12.4508
tau	-12.4508
9,3	-12.451
crassi	-12.4513
nah	-12.4514
▁Papilio	-12.4514
Bonaparte	-12.4514
Leitão	-12.4514
Vista	-12.4515
Cyrus	-12.4515
▁Phàn	-12.4515
liana	-12.4516
ро	-12.4516
eld	-12.4516
▁Mani	-12.4518
istan	-12.4521
▁Embrik	-12.4524
ular	-12.4527
boro	-12.4529
8,9	-12.4529
dolph	-12.4531
EP	-12.4531
estra	-12.4531
basa	-12.4532
mài	-12.4534
▁Hugh	-12.4534
▁Hydropsyche	-12.4535
scar	-12.4535
▁Fab	-12.4536
Hiroshima	-12.4536
Chẩn	-12.4537
▁chê	-12.4543
mov	-12.4545
▁209	-12.4545
▁Xanth	-12.4546
▁Savo	-12.4546
elus	-12.4546
sian	-12.4546
ctis	-12.4548
ağı	-12.4549
Zhukov	-12.455
vey	-12.455
▁Oman	-12.4551
cosm	-12.4551
skii	-12.4553
Khoan	-12.4553
sola	-12.4553
neus	-12.4554
SM	-12.4555
PL	-12.4556
▁1775	-12.4556
Springs	-12.4558
Lữ	-12.4559
▁cúm	-12.456
liêng	-12.456
▁Goth	-12.4562
bút	-12.4562
god	-12.4566
▁Tottenham	-12.4566
Side	-12.4567
Ten	-12.4568
trệ	-12.4568
▁Carlo	-12.4569
mea	-12.4571
SG	-12.4572
▁208	-12.4573
Cloud	-12.4573
steg	-12.4576
▁Cardot	-12.4576
Force	-12.4577
Bear	-12.4578
Mây	-12.4579
tzi	-12.4579
▁boat	-12.458
ulosus	-12.4581
ged	-12.4582
çi	-12.4583
Server	-12.4585
▁Alberto	-12.4586
ráo	-12.4586
brasiliensis	-12.4587
▁Bella	-12.4588
Stru	-12.4589
arrow	-12.4589
rhynch	-12.459
▁Gard	-12.4595
Education	-12.4597
▁Fabricius	-12.4597
▁Oecetis	-12.4597
▁Zodariidae	-12.4597
▁Neuro	-12.4598
kis	-12.46
▁buông	-12.4604
lium	-12.4604
▁khoảnh	-12.4604
sala	-12.4605
ин	-12.4609
▁Danny	-12.4609
riana	-12.4609
LE	-12.4612
plaga	-12.4613
arch	-12.4615
mou	-12.4616
Crawford	-12.4618
▁Eriocaulaceae	-12.4618
▁Turkmenistan	-12.4618
pole	-12.4618
▁Athous	-12.4621
idius	-12.4621
rini	-12.4622
sby	-12.4622
ean	-12.4624
▁Trichomanes	-12.4628
▁Inga	-12.4629
ко	-12.4629
bulb	-12.463
turb	-12.4631
ics	-12.4631
vọt	-12.4631
chuột	-12.4632
Gate	-12.4632
▁giòn	-12.4634
tricolor	-12.4634
sama	-12.4635
ifica	-12.4638
▁Cândido	-12.4638
Office	-12.464
▁Đóng	-12.4644
▁Years	-12.4644
▁Hè	-12.4644
▁Rhy	-12.4645
blephar	-12.4646
▁Gem	-12.4648
iers	-12.4648
▁Eriocaulon	-12.4649
ilo	-12.4649
▁chip	-12.4651
anae	-12.4653
Lau	-12.4655
ongensis	-12.4656
Mer	-12.4657
·	-12.4659
▁gươm	-12.466
ration	-12.4661
zai	-12.4661
IG	-12.4662
▁Flo	-12.4662
Taka	-12.4663
▁Sig	-12.4665
coli	-12.4666
▁Flor	-12.4668
Tiểu	-12.4668
420	-12.467
Fantasy	-12.467
Store	-12.4673
vãn	-12.4675
stol	-12.4678
▁Birmingham	-12.468
▁Saussurea	-12.468
▁hiđrô	-12.468
▁Scoparia	-12.468
shed	-12.4681
Sùng	-12.4681
▁Historical	-12.4681
Harvey	-12.4682
▁Montana	-12.4683
kt	-12.4683
nhẹn	-12.4685
▁Chun	-12.4686
▁proton	-12.4686
Wolf	-12.4689
▁Stefan	-12.4696
lement	-12.4697
Pérez	-12.4701
africana	-12.4701
lanceolata	-12.4701
▁Đầm	-12.4702
99	-12.4704
9,1	-12.4707
Nation	-12.4707
Trình	-12.4708
remo	-12.471
vig	-12.471
rice	-12.471
▁Thy	-12.471
▁TNHH	-12.4712
▁Tetragnathidae	-12.4712
pom	-12.4712
▁kèn	-12.4713
▁dấy	-12.4713
tona	-12.4717
coides	-12.4718
cột	-12.4721
▁Nymph	-12.4723
76	-12.4724
Maru	-12.4724
bạt	-12.4724
▁Kul	-12.4725
▁ngu	-12.4725
OH	-12.4726
Navy	-12.4728
tổn	-12.4728
▁CF	-12.4729
▁Mayors	-12.4733
▁Daryl	-12.4734
grandi	-12.4735
bau	-12.4735
calo	-12.4736
neura	-12.4738
▁Willd	-12.474
▁Inu	-12.4741
palpus	-12.4745
▁Bobby	-12.4746
▁Hemsl	-12.4746
Cro	-12.4747
azu	-12.4748
Tước	-12.4749
otheca	-12.4751
GE	-12.4752
rc	-12.4753
▁Melano	-12.4754
Ser	-12.4759
dius	-12.4763
marginatus	-12.4765
phal	-12.4765
MT	-12.4766
area	-12.4768
▁Greenland	-12.4768
Thôn	-12.4769
fasci	-12.4772
Mus	-12.4773
320	-12.4774
▁photos	-12.4775
haus	-12.4776
▁Tommy	-12.4777
Power	-12.4778
Phấn	-12.478
▁based	-12.4784
García	-12.4785
▁Cặp	-12.4785
▁1798	-12.4785
mirabilis	-12.4786
Step	-12.4786
▁chích	-12.4789
KS	-12.4789
tsuki	-12.4791
Rangers	-12.4792
lani	-12.4792
nad	-12.4794
▁Ost	-12.4795
Fra	-12.4796
glottis	-12.4796
stad	-12.4796
▁nón	-12.4796
▁chén	-12.4798
tone	-12.4801
▁Meg	-12.4802
Duke	-12.4803
▁tỏi	-12.4803
gari	-12.4805
▁Fleisch	-12.4807
bát	-12.4807
▁Hogna	-12.4807
Work	-12.4809
ogaster	-12.4811
margin	-12.4814
Tảo	-12.4814
hàn	-12.4815
mitrium	-12.4817
▁Til	-12.4818
Machine	-12.4818
table	-12.4818
vara	-12.482
Patri	-12.4821
caudata	-12.4822
ổi	-12.4822
vera	-12.4822
uber	-12.4825
pert	-12.4826
CD	-12.4827
▁Bois	-12.4827
lino	-12.4828
▁Acalypha	-12.4828
lụa	-12.4828
▁Harms	-12.4829
Tro	-12.4829
break	-12.4833
abi	-12.4836
Os	-12.4836
mờ	-12.4837
anense	-12.4838
▁xavan	-12.4838
▁Ancient	-12.4838
▁Sailor	-12.4839
▁lều	-12.4839
Kennedy	-12.484
▁cacbonat	-12.4842
ộc	-12.4842
eren	-12.4843
Cận	-12.4843
bergi	-12.4845
evsky	-12.4845
pulchra	-12.4846
anca	-12.4846
cik	-12.4846
▁Morton	-12.4846
dict	-12.4847
brook	-12.4848
▁Tức	-12.4848
Vành	-12.4849
chẵn	-12.4849
▁Dmitri	-12.4849
ario	-12.4849
▁Turridae	-12.4849
▁Midway	-12.4849
PE	-12.485
báng	-12.485
hong	-12.4853
▁flo	-12.4853
Five	-12.4854
Dự	-12.4857
HC	-12.4857
Class	-12.4858
Ry	-12.4859
▁Gekkonidae	-12.486
▁neutron	-12.486
Ả	-12.486
opteryx	-12.4861
308	-12.4861
kri	-12.4864
brac	-12.4864
Canh	-12.4865
Müller	-12.4866
Galli	-12.4868
virens	-12.4868
▁Elaeocarpus	-12.487
▁Mona	-12.4872
opi	-12.4872
Thunder	-12.4873
magni	-12.4873
Des	-12.4873
dani	-12.4874
rhiza	-12.4874
▁Cannes	-12.4876
MK	-12.4876
▁Anura	-12.4878
Girls	-12.488
agh	-12.4882
▁Xen	-12.4884
Miller	-12.4885
lobus	-12.4891
▁Erigeron	-12.4892
reli	-12.4893
Reich	-12.4896
▁Ames	-12.4897
▁sồi	-12.4897
▁Bab	-12.4897
▁Wolfgang	-12.4903
▁HĐB	-12.4903
Ren	-12.4904
▁Kurd	-12.4905
action	-12.4906
▁Hôm	-12.4907
▁Tem	-12.4909
än	-12.4912
uji	-12.4913
▁Mauritius	-12.4913
▁Scutellaria	-12.4913
▁Firmino	-12.4913
▁Specialist	-12.4914
▁Nakhon	-12.4914
▁Pip	-12.4919
▁subsp	-12.492
Stra	-12.4923
family	-12.4924
▁Chel	-12.4924
▁Vượt	-12.4924
▁Images	-12.4925
▁Hypena	-12.4927
Big	-12.493
▁CM	-12.4931
▁Khóa	-12.4931
▁Dick	-12.4932
Phiên	-12.4933
▁Pai	-12.4934
àng	-12.4934
▁Io	-12.4934
Fletcher	-12.4935
variegata	-12.4935
▁đúp	-12.4935
melia	-12.4936
▁thóc	-12.4936
▁Kirk	-12.4937
91	-12.4938
Watch	-12.4939
rinia	-12.4939
cino	-12.494
▁Macr	-12.4941
quyến	-12.4941
tifolia	-12.4942
Gil	-12.4942
ature	-12.4944
Lynch	-12.4945
Л	-12.4945
omy	-12.4947
▁Roberto	-12.4949
Mann	-12.4949
▁Champa	-12.4952
atti	-12.4953
anii	-12.4953
▁chốn	-12.4953
tico	-12.4954
lc	-12.4956
nyi	-12.4959
Heath	-12.4959
jae	-12.4961
auranti	-12.4961
Slo	-12.4963
ни	-12.4967
▁Nau	-12.497
▁Zan	-12.4971
▁Panicum	-12.4971
Pal	-12.4971
Phả	-12.4973
walk	-12.4974
anza	-12.4975
simo	-12.4976
375	-12.4976
iệt	-12.4977
cole	-12.4978
impress	-12.498
▁nụ	-12.4982
vice	-12.4985
▁Monta	-12.4985
Bát	-12.4986
phyllus	-12.4987
power	-12.4987
6,0	-12.4988
▁Connecticut	-12.4988
riz	-12.4989
minima	-12.4992
optila	-12.4993
uria	-12.4994
Spirit	-12.4995
Chai	-12.4995
gers	-12.4998
▁Gha	-12.4998
▁Aşağı	-12.5001
spar	-12.5001
Khởi	-12.5004
▁Andes	-12.5006
ruf	-12.5006
▁Trừ	-12.5006
att	-12.5007
hetero	-12.5007
lox	-12.5008
▁Alain	-12.501
▁Glypta	-12.501
▁iTunes	-12.501
▁Reitter	-12.501
Control	-12.5011
▁Dallas	-12.5011
▁Ling	-12.5014
▁Nhập	-12.5021
▁Canadian	-12.5021
▁model	-12.5021
▁Phí	-12.5021
isson	-12.5022
real	-12.5023
git	-12.5026
Xà	-12.5026
Sar	-12.5026
Trâm	-12.5026
Murphy	-12.5028
teria	-12.5029
▁mác	-12.5029
▁1792	-12.503
ów	-12.5031
▁ngoạn	-12.5032
tibialis	-12.5032
▁Multi	-12.5032
eris	-12.5032
▁Hir	-12.5033
Foster	-12.5034
mada	-12.5034
▁Nên	-12.5036
tik	-12.5037
▁Suy	-12.5038
307	-12.5039
cini	-12.5039
lais	-12.5039
trọ	-12.504
isto	-12.5042
▁Campanula	-12.5043
Vàng	-12.5043
▁Mangora	-12.5043
▁Tokat	-12.5044
kow	-12.5045
cano	-12.5045
anthura	-12.5047
kers	-12.5047
throp	-12.5051
▁Yahoo	-12.5053
ogramma	-12.5054
▁KV	-12.5054
Biểu	-12.5055
▁Mika	-12.5058
Shell	-12.5059
kiêng	-12.506
▁Selen	-12.5061
drom	-12.5061
Lost	-12.5062
▁Garcinia	-12.5064
▁Hokkaidō	-12.5064
▁Niedersachsen	-12.5064
▁Moldova	-12.5064
Cre	-12.5064
Europaea	-12.5065
kop	-12.5065
kere	-12.5066
Castle	-12.5067
bụng	-12.5068
Best	-12.5068
union	-12.507
Filip	-12.5071
▁Chị	-12.5073
▁Geotrupidae	-12.5075
▁Ptycho	-12.5078
RF	-12.5078
▁Miq	-12.5079
▁Gür	-12.5081
illard	-12.5083
lắc	-12.5083
Morrison	-12.5085
À	-12.5086
▁Gặp	-12.5086
pine	-12.5088
Rovers	-12.5088
lian	-12.5089
ре	-12.5094
▁Copt	-12.5096
rano	-12.5097
ớp	-12.5098
▁Felix	-12.5098
brevis	-12.5098
sworth	-12.5098
▁Sầm	-12.5099
Cr	-12.5099
Ger	-12.51
elis	-12.5102
▁Lima	-12.5103
▁Ox	-12.5104
▁Wol	-12.5106
▁sải	-12.5108
▁Ommatius	-12.5108
▁Bohemia	-12.5108
▁Philodendron	-12.5108
▁trói	-12.5108
chang	-12.5116
rigid	-12.512
▁Hello	-12.5125
Hughes	-12.5127
gián	-12.5127
▁Newport	-12.5128
▁Hur	-12.5128
pass	-12.5128
356	-12.5129
▁Auckland	-12.513
▁Danube	-12.513
folius	-12.513
▁Griseb	-12.513
▁Maj	-12.5131
proc	-12.5131
▁Too	-12.5134
Col	-12.5136
▁Từng	-12.5136
Frank	-12.5136
▁Plu	-12.5137
lobata	-12.5137
versa	-12.5138
aureo	-12.5139
▁Fen	-12.514
▁Plagio	-12.514
Latinh	-12.5141
Lloyd	-12.5141
Г	-12.5141
▁Eg	-12.5141
▁Silene	-12.5142
▁Poecil	-12.5142
▁Thuế	-12.5142
Study	-12.5143
reich	-12.5146
▁Gir	-12.5148
game	-12.515
▁Tia	-12.515
ality	-12.5151
ophi	-12.5151
▁Newfoundland	-12.5152
President	-12.5152
▁Hispanic	-12.5152
▁Warszawa	-12.5152
▁Delphinium	-12.5152
Bloom	-12.5152
borough	-12.5152
▁Sino	-12.5153
9,7	-12.5155
hộp	-12.5155
Pad	-12.516
Phone	-12.516
720	-12.5162
Sihanouk	-12.5163
medi	-12.5165
▁Trel	-12.5167
▁chầu	-12.5168
▁điềm	-12.5168
Gross	-12.5168
▁Flight	-12.5169
vác	-12.517
hri	-12.5171
Royal	-12.5172
Rhodes	-12.5173
ứ	-12.5173
Gallery	-12.5174
Char	-12.5176
▁Guyana	-12.5176
gamma	-12.5177
Vô	-12.5178
▁Manche	-12.5181
idis	-12.5181
Institute	-12.5183
viola	-12.5183
▁Ghost	-12.5185
amphi	-12.5186
pinna	-12.5186
ranger	-12.5188
▁Luz	-12.519
▁húy	-12.5191
ц	-12.5193
acro	-12.5193
seric	-12.5194
fla	-12.5195
▁Cassi	-12.5195
▁Dalbergia	-12.5196
ophthalmus	-12.5197
Quái	-12.5197
▁rơm	-12.5197
cay	-12.5201
ře	-12.5205
laevi	-12.5207
lund	-12.5208
▁Isla	-12.5209
thecium	-12.5209
Phù	-12.5209
tachi	-12.5209
386	-12.5211
wara	-12.5211
▁Loir	-12.5213
nét	-12.5215
470	-12.5215
ostola	-12.5217
speciosa	-12.5218
▁chồn	-12.5218
isso	-12.5219
Ord	-12.522
tiva	-12.5221
nec	-12.5222
iếc	-12.5228
▁Tasmania	-12.5229
Travel	-12.5233
ible	-12.5233
phyr	-12.5233
▁Pare	-12.5237
hexa	-12.5238
iệu	-12.5239
hra	-12.5239
ก	-12.524
wad	-12.524
caule	-12.5241
▁Kri	-12.5244
▁Vỏ	-12.5245
ages	-12.5246
pont	-12.5246
▁Gaul	-12.5247
640	-12.5248
▁mồng	-12.5248
Kerr	-12.5248
abs	-12.525
8,0	-12.5252
belli	-12.5252
▁Chàng	-12.5252
hut	-12.5253
Again	-12.5253
chromis	-12.5254
archive	-12.5258
etis	-12.5259
cing	-12.5259
▁xáo	-12.5259
science	-12.526
max	-12.526
▁Schwe	-12.526
Faso	-12.5261
▁Konya	-12.5261
nhỏ	-12.5262
▁Nephrotoma	-12.5262
Liệu	-12.5262
chet	-12.5262
guer	-12.5262
Ali	-12.5262
otto	-12.5263
hur	-12.5264
▁Gau	-12.5264
▁Audi	-12.5264
Christi	-12.5265
740	-12.5265
Carroll	-12.5265
RM	-12.5267
American	-12.5268
math	-12.5269
▁1816	-12.5271
xanth	-12.5271
Rose	-12.5271
zine	-12.5273
▁Biodiversity	-12.5273
▁Viola	-12.5274
vec	-12.5274
▁Cost	-12.5274
gren	-12.5275
Cinema	-12.5275
303	-12.5276
▁Bân	-12.5278
Mina	-12.5281
Giao	-12.5281
dạt	-12.5283
▁Abel	-12.5284
valli	-12.5285
marin	-12.5286
chéo	-12.5288
▁Phyll	-12.5289
rge	-12.5289
▁Ame	-12.5289
Ngôn	-12.5289
java	-12.529
cune	-12.5294
raj	-12.5294
Rein	-12.5295
ński	-12.5295
Code	-12.5297
modesta	-12.5298
Gamb	-12.5298
ching	-12.5299
▁1788	-12.53
lợ	-12.5302
но	-12.5302
byss	-12.5303
deli	-12.5306
tomentosa	-12.5306
Document	-12.5307
▁Werner	-12.5307
carinata	-12.5309
▁Buch	-12.5311
Kobe	-12.5312
▁Schust	-12.5313
Sup	-12.5314
390	-12.5315
▁Ptolemaios	-12.5318
▁Ulithi	-12.5318
▁Quỷ	-12.5318
▁Viking	-12.532
Phượng	-12.5326
ọt	-12.5326
▁Bosna	-12.5326
Ngoài	-12.5326
endra	-12.5326
▁Kris	-12.5327
vac	-12.5329
▁Kepler	-12.5329
Ấ	-12.533
▁Roland	-12.533
▁Rhodo	-12.5338
▁Carmen	-12.5339
▁Eragrostis	-12.534
nap	-12.534
Đỏ	-12.5341
▁Ravenna	-12.5343
4,0	-12.5345
Alliance	-12.5351
▁Aderidae	-12.5351
Ngự	-12.5352
Lewis	-12.5352
tek	-12.5352
Tour	-12.5353
wie	-12.5355
▁Lio	-12.5357
▁Josef	-12.536
▁Burkina	-12.5363
deni	-12.5363
umba	-12.5363
Putin	-12.5364
▁Chưởng	-12.5366
luca	-12.5366
ious	-12.5367
masa	-12.5368
▁Louise	-12.5371
alti	-12.5371
pag	-12.5371
▁Bursa	-12.5372
buồn	-12.5372
▁Wald	-12.5373
▁Yukarı	-12.5374
reticulata	-12.5374
machi	-12.5374
▁through	-12.5374
ộ	-12.5374
Fox	-12.5374
▁Hana	-12.5375
▁211	-12.5376
ли	-12.5377
berry	-12.5377
▁Glo	-12.5378
olin	-12.5379
Mười	-12.5379
▁Peters	-12.538
Bài	-12.538
Queen	-12.5382
▁lộng	-12.5384
bov	-12.5385
nại	-12.5386
▁Dha	-12.5387
▁Esco	-12.5391
84	-12.5391
tour	-12.5392
works	-12.5392
bbe	-12.5394
▁Konstantin	-12.5395
Đản	-12.5395
crat	-12.5396
bill	-12.5397
iệp	-12.5398
prop	-12.5398
ggi	-12.5399
pea	-12.54
▁Solar	-12.54
rubra	-12.54
chila	-12.5402
406	-12.5402
▁VH	-12.5403
Dam	-12.5405
ebel	-12.5406
Hối	-12.5406
Tắc	-12.5407
▁Aydın	-12.5407
Fin	-12.5409
atis	-12.541
smith	-12.5414
roo	-12.5414
▁rạng	-12.5417
Đắc	-12.5418
▁Nicole	-12.5418
Bengal	-12.5418
▁Yeşil	-12.5418
▁Bolshevik	-12.5418
▁Chitradurga	-12.5418
▁Passiflora	-12.5418
thio	-12.5419
odontium	-12.5419
jas	-12.5421
andre	-12.5422
ognatha	-12.5423
chae	-12.5423
▁Conan	-12.5423
navy	-12.5425
vé	-12.5428
▁chèn	-12.5429
▁Lisa	-12.543
Hotel	-12.543
▁Vienna	-12.543
▁Thuở	-12.5431
▁Cám	-12.5432
cruci	-12.5432
▁Kuala	-12.5433
▁Salt	-12.5433
▁sô	-12.5434
Morning	-12.5434
bỉ	-12.5434
ones	-12.5434
Mun	-12.5436
▁Mazz	-12.5436
301	-12.5436
võ	-12.5438
tans	-12.5438
Masters	-12.544
▁Spar	-12.5441
nhụy	-12.5441
Television	-12.5441
▁April	-12.5441
care	-12.5442
93	-12.5445
fat	-12.5446
59	-12.5447
Binh	-12.5448
▁Đón	-12.545
tươi	-12.5451
trải	-12.5452
Mệnh	-12.5452
▁Nhảy	-12.5452
▁Sukhoi	-12.5452
Lib	-12.5454
green	-12.5454
Palace	-12.5454
9,4	-12.5455
siphon	-12.5456
Cruz	-12.5458
thrix	-12.5458
▁Emil	-12.5459
nhĩ	-12.546
ềm	-12.546
ties	-12.5461
dov	-12.5463
niv	-12.5463
thos	-12.5463
Watanabe	-12.5464
▁Nyctemera	-12.5464
Ibrahim	-12.5464
Fal	-12.5464
flavescens	-12.5464
khen	-12.5464
Shield	-12.5465
strict	-12.5465
cylindr	-12.5467
otoma	-12.547
plicata	-12.547
angel	-12.5472
sym	-12.5474
та	-12.5475
Yellow	-12.5475
Software	-12.5475
▁Michelin	-12.5476
ciliata	-12.5476
sep	-12.5477
Clara	-12.5478
▁Mit	-12.5479
▁Panther	-12.548
FS	-12.5481
Sto	-12.5482
dall	-12.5484
▁Mimo	-12.5485
ле	-12.5485
Mão	-12.5485
rate	-12.5486
▁sous	-12.5486
Д	-12.5486
▁Grevillea	-12.5486
Heaven	-12.5486
▁Sophie	-12.5487
pres	-12.5487
▁Dennis	-12.5487
cinctus	-12.5489
▁Eup	-12.549
Than	-12.5492
▁Myrcia	-12.5493
Torres	-12.5494
▁Tul	-12.5496
▁Honda	-12.5497
▁Moldenke	-12.5498
▁loãng	-12.5498
▁Euler	-12.55
▁Michelle	-12.5502
discolor	-12.5503
Hoành	-12.5504
Den	-12.5504
Prize	-12.5506
cocc	-12.5506
anicum	-12.5507
rigida	-12.5508
cot	-12.5509
riv	-12.5509
▁BWV	-12.5509
phanes	-12.551
Series	-12.5512
lidae	-12.5514
aren	-12.5514
▁Hách	-12.5514
5,0	-12.5515
▁golf	-12.5517
bora	-12.5517
rö	-12.5517
▁MBC	-12.5518
249	-12.5519
[...]
